{
  "version": "1.0",
  "truncation": null,
  "padding": null,
  "added_tokens": [
    {
      "id": 0,
      "content": "<|endoftext|>",
      "single_word": false,
      "lstrip": false,
      "rstrip": false,
      "normalized": false,
      "special": true
    },
    {
      "id": 1,
      "content": "<|im_start|>",
      "single_word": false,
      "lstrip": false,
      "rstrip": false,
      "normalized": false,
      "special": true
    },
    {
      "id": 2,
      "content": "<|im_end|>",
      "single_word": false,
      "lstrip": false,
      "rstrip": false,
      "normalized": false,
      "special": true
    },
    {
      "id": 3,
      "content": "<think>",
      "single_word": false,
      "lstrip": false,
      "rstrip": false,
      "normalized": false,
      "special": true
    },
    {
      "id": 4,
      "content": "</think>",
      "single_word": false,
      "lstrip": false,
      "rstrip": false,
      "normalized": false,
      "special": true
    },
    {
      "id": 5,
      "content": "<tool_call>",
      "single_word": false,
      "lstrip": false,
      "rstrip": false,
      "normalized": false,
      "special": true
    },
    {
      "id": 6,
      "content": "</tool_call>",
      "single_word": false,
      "lstrip": false,
      "rstrip": false,
      "normalized": false,
      "special": true
    },
    {
      "id": 7,
      "content": "<tool_response>",
      "single_word": false,
      "lstrip": false,
      "rstrip": false,
      "normalized": false,
      "special": true
    },
    {
      "id": 8,
      "content": "</tool_response>",
      "single_word": false,
      "lstrip": false,
      "rstrip": false,
      "normalized": false,
      "special": true
    }
  ],
  "normalizer": null,
  "pre_tokenizer": {
    "type": "ByteLevel",
    "add_prefix_space": false,
    "trim_offsets": true,
    "use_regex": true
  },
  "post_processor": null,
  "decoder": {
    "type": "ByteLevel",
    "add_prefix_space": true,
    "trim_offsets": true,
    "use_regex": true
  },
  "model": {
    "type": "BPE",
    "dropout": null,
    "unk_token": null,
    "continuing_subword_prefix": null,
    "end_of_word_suffix": null,
    "fuse_unk": false,
    "byte_fallback": false,
    "ignore_merges": false,
    "vocab": {
      "<|endoftext|>": 0,
      "<|im_start|>": 1,
      "<|im_end|>": 2,
      "<think>": 3,
      "</think>": 4,
      "<tool_call>": 5,
      "</tool_call>": 6,
      "<tool_response>": 7,
      "</tool_response>": 8,
      "!": 9,
      "\"": 10,
      "#": 11,
      "$": 12,
      "%": 13,
      "&": 14,
      "'": 15,
      "(": 16,
      ")": 17,
      "*": 18,
      "+": 19,
      ",": 20,
      "-": 21,
      ".": 22,
      "/": 23,
      "0": 24,
      "1": 25,
      "2": 26,
      "3": 27,
      "4": 28,
      "5": 29,
      "6": 30,
      "7": 31,
      "8": 32,
      "9": 33,
      ":": 34,
      ";": 35,
      "<": 36,
      "=": 37,
      ">": 38,
      "?": 39,
      "@": 40,
      "A": 41,
      "B": 42,
      "C": 43,
      "D": 44,
      "E": 45,
      "F": 46,
      "G": 47,
      "H": 48,
      "I": 49,
      "J": 50,
      "K": 51,
      "L": 52,
      "M": 53,
      "N": 54,
      "O": 55,
      "P": 56,
      "Q": 57,
      "R": 58,
      "S": 59,
      "T": 60,
      "U": 61,
      "V": 62,
      "W": 63,
      "X": 64,
      "Y": 65,
      "Z": 66,
      "[": 67,
      "\\": 68,
      "]": 69,
      "^": 70,
      "_": 71,
      "`": 72,
      "a": 73,
      "b": 74,
      "c": 75,
      "d": 76,
      "e": 77,
      "f": 78,
      "g": 79,
      "h": 80,
      "i": 81,
      "j": 82,
      "k": 83,
      "l": 84,
      "m": 85,
      "n": 86,
      "o": 87,
      "p": 88,
      "q": 89,
      "r": 90,
      "s": 91,
      "t": 92,
      "u": 93,
      "v": 94,
      "w": 95,
      "x": 96,
      "y": 97,
      "z": 98,
      "{": 99,
      "|": 100,
      "}": 101,
      "~": 102,
      "¡": 103,
      "¢": 104,
      "£": 105,
      "¤": 106,
      "¥": 107,
      "¦": 108,
      "§": 109,
      "¨": 110,
      "©": 111,
      "ª": 112,
      "«": 113,
      "¬": 114,
      "®": 115,
      "¯": 116,
      "°": 117,
      "±": 118,
      "²": 119,
      "³": 120,
      "´": 121,
      "µ": 122,
      "¶": 123,
      "·": 124,
      "¸": 125,
      "¹": 126,
      "º": 127,
      "»": 128,
      "¼": 129,
      "½": 130,
      "¾": 131,
      "¿": 132,
      "À": 133,
      "Á": 134,
      "Â": 135,
      "Ã": 136,
      "Ä": 137,
      "Å": 138,
      "Æ": 139,
      "Ç": 140,
      "È": 141,
      "É": 142,
      "Ê": 143,
      "Ë": 144,
      "Ì": 145,
      "Í": 146,
      "Î": 147,
      "Ï": 148,
      "Ð": 149,
      "Ñ": 150,
      "Ò": 151,
      "Ó": 152,
      "Ô": 153,
      "Õ": 154,
      "Ö": 155,
      "×": 156,
      "Ø": 157,
      "Ù": 158,
      "Ú": 159,
      "Û": 160,
      "Ü": 161,
      "Ý": 162,
      "Þ": 163,
      "ß": 164,
      "à": 165,
      "á": 166,
      "â": 167,
      "ã": 168,
      "ä": 169,
      "å": 170,
      "æ": 171,
      "ç": 172,
      "è": 173,
      "é": 174,
      "ê": 175,
      "ë": 176,
      "ì": 177,
      "í": 178,
      "î": 179,
      "ï": 180,
      "ð": 181,
      "ñ": 182,
      "ò": 183,
      "ó": 184,
      "ô": 185,
      "õ": 186,
      "ö": 187,
      "÷": 188,
      "ø": 189,
      "ù": 190,
      "ú": 191,
      "û": 192,
      "ü": 193,
      "ý": 194,
      "þ": 195,
      "ÿ": 196,
      "Ā": 197,
      "ā": 198,
      "Ă": 199,
      "ă": 200,
      "Ą": 201,
      "ą": 202,
      "Ć": 203,
      "ć": 204,
      "Ĉ": 205,
      "ĉ": 206,
      "Ċ": 207,
      "ċ": 208,
      "Č": 209,
      "č": 210,
      "Ď": 211,
      "ď": 212,
      "Đ": 213,
      "đ": 214,
      "Ē": 215,
      "ē": 216,
      "Ĕ": 217,
      "ĕ": 218,
      "Ė": 219,
      "ė": 220,
      "Ę": 221,
      "ę": 222,
      "Ě": 223,
      "ě": 224,
      "Ĝ": 225,
      "ĝ": 226,
      "Ğ": 227,
      "ğ": 228,
      "Ġ": 229,
      "ġ": 230,
      "Ģ": 231,
      "ģ": 232,
      "Ĥ": 233,
      "ĥ": 234,
      "Ħ": 235,
      "ħ": 236,
      "Ĩ": 237,
      "ĩ": 238,
      "Ī": 239,
      "ī": 240,
      "Ĭ": 241,
      "ĭ": 242,
      "Į": 243,
      "į": 244,
      "İ": 245,
      "ı": 246,
      "Ĳ": 247,
      "ĳ": 248,
      "Ĵ": 249,
      "ĵ": 250,
      "Ķ": 251,
      "ķ": 252,
      "ĸ": 253,
      "Ĺ": 254,
      "ĺ": 255,
      "Ļ": 256,
      "ļ": 257,
      "Ľ": 258,
      "ľ": 259,
      "Ŀ": 260,
      "ŀ": 261,
      "Ł": 262,
      "ł": 263,
      "Ń": 264,
      "Ġt": 265,
      "Ġ\\": 266,
      "he": 267,
      "Ġa": 268,
      "in": 269,
      "on": 270,
      "ti": 271,
      "Ġthe": 272,
      "er": 273,
      "ĠĠ": 274,
      "re": 275,
      "Ġo": 276,
      "es": 277,
      "Ġs": 278,
      "is": 279,
      "en": 280,
      "al": 281,
      "Ġc": 282,
      "**": 283,
      "ra": 284,
      "tion": 285,
      "Ġ\\(": 286,
      "Ġf": 287,
      "at": 288,
      "or": 289,
      "Ġof": 290,
      "nd": 291,
      "le": 292,
      "Ġ=": 293,
      "Ġp": 294,
      "Ġb": 295,
      "ing": 296,
      "it": 297,
      "Ġw": 298,
      "an": 299,
      "##": 300,
      "ro": 301,
      "Ġd": 302,
      "Ġin": 303,
      "Ġm": 304,
      "Ġand": 305,
      "ar": 306,
      "Ġis": 307,
      "Ġ1": 308,
      "Ġto": 309,
      "Ġ\\)": 310,
      "ed": 311,
      "Ġe": 312,
      "rac": 313,
      "Ġ-": 314,
      "Ġn": 315,
      "te": 316,
      "ou": 317,
      "Ġ2": 318,
      "ĠT": 319,
      "ic": 320,
      "\\)": 321,
      "ent": 322,
      "ation": 323,
      "ve": 324,
      "ol": 325,
      "qu": 326,
      "ĊĠĠ": 327,
      "}{": 328,
      "et": 329,
      "frac": 330,
      "Ġ+": 331,
      "om": 332,
      "Ġth": 333,
      "um": 334,
      "ul": 335,
      "ri": 336,
      "us": 337,
      "as": 338,
      "ce": 339,
      "ĠS": 340,
      "ĠA": 341,
      "Ġ(": 342,
      "ĠC": 343,
      "ot": 344,
      "Ġfor": 345,
      "Ġre": 346,
      "ct": 347,
      "im": 348,
      "Ġl": 349,
      "ĠP": 350,
      "Ġh": 351,
      "Ġg": 352,
      "id": 353,
      "ow": 354,
      "ĠI": 355,
      "ers": 356,
      "Ġ3": 357,
      "ĠĠĠĠ": 358,
      "Ġy": 359,
      "pl": 360,
      "os": 361,
      "Ġ**": 362,
      "\\[": 363,
      "ĠF": 364,
      "am": 365,
      "xt": 366,
      "il": 367,
      "Ġan": 368,
      "--": 369,
      "00": 370,
      "ĠThe": 371,
      "Ġon": 372,
      ":**": 373,
      "if": 374,
      "ta": 375,
      "Ġv": 376,
      "iv": 377,
      "ec": 378,
      "ig": 379,
      "Ġpro": 380,
      "Ġare": 381,
      "ge": 382,
      "ir": 383,
      "ĠM": 384,
      "umb": 385,
      "ĠE": 386,
      "ble": 387,
      "Ġ0": 388,
      "Ġcon": 389,
      "Ġ\\]": 390,
      "ith": 391,
      "###": 392,
      "text": 393,
      "Ġthat": 394,
      "Ġ4": 395,
      "Ġbe": 396,
      "Ġx": 397,
      "tic": 398,
      "un": 399,
      "ly": 400,
      "Ġby": 401,
      "ch": 402,
      "ht": 403,
      "Ġnumb": 404,
      "ĠD": 405,
      "Ġex": 406,
      "tim": 407,
      "res": 408,
      "ple": 409,
      "ut": 410,
      "Ġ$": 411,
      "Ġwith": 412,
      "Ġas": 413,
      "ĠR": 414,
      "ine": 415,
      "Ġ5": 416,
      "ter": 417,
      "ate": 418,
      "ction": 419,
      "times": 420,
      "el": 421,
      "ion": 422,
      "ad": 423,
      "Ġequ": 424,
      "Ġit": 425,
      "ĠL": 426,
      "__": 427,
      "ĠB": 428,
      "ur": 429,
      "ations": 430,
      "Ġyou": 431,
      "Ġus": 432,
      "ore": 433,
      "th": 434,
      "ĠW": 435,
      "Ġal": 436,
      "ity": 437,
      "ay": 438,
      "ind": 439,
      "ts": 440,
      "Ġst": 441,
      "ver": 442,
      "Ġcan": 443,
      "st": 444,
      "rig": 445,
      "The": 446,
      "Ġcom": 447,
      "\\]": 448,
      "od": 449,
      "Ġ6": 450,
      "Ġ|": 451,
      "Ġwe": 452,
      "Ġwh": 453,
      "ang": 454,
      "tive": 455,
      "ĊĠ": 456,
      "Ġ\\).": 457,
      "Ġor": 458,
      "ĠH": 459,
      "cul": 460,
      "ment": 461,
      "ution": 462,
      "ĠN": 463,
      "se": 464,
      "**:": 465,
      "ma": 466,
      "Ġat": 467,
      "Ġnumber": 468,
      "her": 469,
      "blem": 470,
      "ath": 471,
      "alcul": 472,
      "rom": 473,
      "^{": 474,
      "ub": 475,
      "ud": 476,
      "pp": 477,
      "alu": 478,
      "unction": 479,
      "ist": 480,
      "oin": 481,
      "Ġra": 482,
      "\\).": 483,
      "Ġthis": 484,
      "Ġ&": 485,
      "ĠG": 486,
      "Ġk": 487,
      "right": 488,
      "ft": 489,
      "per": 490,
      "fer": 491,
      "Ġsol": 492,
      "lo": 493,
      "ab": 494,
      "Ġfrom": 495,
      "wo": 496,
      "Ġ\\(\\": 497,
      "his": 498,
      "_{": 499,
      "ctor": 500,
      "ĠIn": 501,
      "pe": 502,
      "ample": 503,
      "ess": 504,
      "end": 505,
      "Ġ10": 506,
      "Ġde": 507,
      "ĠĠĠĠĠĠĠĠ": 508,
      "Ġ7": 509,
      "ill": 510,
      "Ġu": 511,
      "ĠPro": 512,
      "Ġha": 513,
      "âĢ": 514,
      "pres": 515,
      "ĠEx": 516,
      "erm": 517,
      "les": 518,
      "ach": 519,
      "Ġ8": 520,
      "ac": 521,
      "ns": 522,
      "dot": 523,
      "Ġ\\,": 524,
      "ide": 525,
      "Ġ\\),": 526,
      "ure": 527,
      "Ġ\\[": 528,
      "Ġform": 529,
      "Ġ9": 530,
      "sion": 531,
      "rt": 532,
      "ph": 533,
      "tions": 534,
      "Ġtwo": 535,
      "enti": 536,
      "ents": 537,
      "sq": 538,
      "irc": 539,
      "sqrt": 540,
      "ight": 541,
      "are": 542,
      "Ġfunction": 543,
      "all": 544,
      "est": 545,
      "ĠO": 546,
      "ĊĊĠĠ": 547,
      "ence": 548,
      "Ġwhe": 549,
      "Ġne": 550,
      "Ġle": 551,
      "ulti": 552,
      "dd": 553,
      "\\),": 554,
      "Ġch": 555,
      "ak": 556,
      "ys": 557,
      "to": 558,
      "ric": 559,
      "Ġme": 560,
      "Ġ20": 561,
      "orm": 562,
      "Ġqu": 563,
      "Ġsh": 564,
      "ag": 565,
      "teg": 566,
      "Ġhave": 567,
      "Ġhe": 568,
      "ru": 569,
      "iz": 570,
      "low": 571,
      "____": 572,
      "Ġvalu": 573,
      "'s": 574,
      "Ġmat": 575,
      "ĠU": 576,
      "du": 577,
      "Ġnumbers": 578,
      "----": 579,
      "ĠV": 580,
      "Ġse": 581,
      "ies": 582,
      "Ġpoin": 583,
      "Ġper": 584,
      "10": 585,
      "iffer": 586,
      "angle": 587,
      "tical": 588,
      "Ġnot": 589,
      "ich": 590,
      "ial": 591,
      "tand": 592,
      "Ġone": 593,
      "Ġfind": 594,
      "ant": 595,
      "ance": 596,
      "ition": 597,
      "ard": 598,
      "our": 599,
      "iven": 600,
      "cdot": 601,
      "ld": 602,
      "ect": 603,
      "ving": 604,
      "ari": 605,
      "(\\": 606,
      "rou": 607,
      "Ġequation": 608,
      "ĠCon": 609,
      "}}": 610,
      "ultipl": 611,
      "Ġif": 612,
      "hema": 613,
      "ite": 614,
      "Ġres": 615,
      "nt": 616,
      "hat": 617,
      "$$": 618,
      "Qu": 619,
      "{\\": 620,
      "Ġline": 621,
      "ork": 622,
      "left": 623,
      "Ġcalcul": 624,
      "Ġ12": 625,
      "Ġdo": 626,
      "Ġsu": 627,
      "impl": 628,
      "Ġpl": 629,
      "ĊĠĠĠ": 630,
      "Ġwill": 631,
      "ative": 632,
      "art": 633,
      "Ġwhich": 634,
      "Ġro": 635,
      "math": 636,
      "Ġproblem": 637,
      "Ġun": 638,
      "cl": 639,
      "ther": 640,
      "Ġeach": 641,
      "ass": 642,
      "Ġdiffer": 643,
      "####": 644,
      "ap": 645,
      "12": 646,
      ")^": 647,
      "ome": 648,
      "ond": 649,
      "ĠFor": 650,
      "ated": 651,
      "wer": 652,
      "ase": 653,
      "ree": 654,
      "eng": 655,
      "Ġr": 656,
      "fin": 657,
      "Ġpos": 658,
      "Ġab": 659,
      "Ġusing": 660,
      "ace": 661,
      "ame": 662,
      "ould": 663,
      "Ġinteg": 664,
      "pi": 665,
      "Ġdiv": 666,
      "ry": 667,
      "Ġall": 668,
      "ps": 669,
      "olution": 670,
      "ator": 671,
      "sin": 672,
      "able": 673,
      "ust": 674,
      "ppro": 675,
      "Ġgra": 676,
      "actor": 677,
      "ord": 678,
      "}\\)": 679,
      "Ġtri": 680,
      "og": 681,
      "ties": 682,
      "Ġcomp": 683,
      "ous": 684,
      "``": 685,
      "irst": 686,
      "quare": 687,
      "omet": 688,
      "the": 689,
      "Ġ\\\\": 690,
      "Ġsp": 691,
      "Ġtim": 692,
      "Ġang": 693,
      "ff": 694,
      "age": 695,
      "Ġgiven": 696,
      "ility": 697,
      "als": 698,
      "ign": 699,
      "This": 700,
      "Ġhas": 701,
      "ain": 702,
      "---": 703,
      "ear": 704,
      "}\\": 705,
      "rib": 706,
      "ary": 707,
      "Ġdist": 708,
      "we": 709,
      "ĠIf": 710,
      "ĠThis": 711,
      "ppl": 712,
      "Ġvari": 713,
      "ides": 714,
      "Ġthen": 715,
      "eg": 716,
      "Ġbet": 717,
      "mathb": 718,
      "ĠProblem": 719,
      "ci": 720,
      "cep": 721,
      "rix": 722,
      "ally": 723,
      "Ġstud": 724,
      "Ġinter": 725,
      "ting": 726,
      "cos": 727,
      "Ġ\"": 728,
      ").": 729,
      "000": 730,
      "its": 731,
      "Ġac": 732,
      "nders": 733,
      "ost": 734,
      "Ġexpres": 735,
      "estion": 736,
      "ces": 737,
      "ram": 738,
      "ves": 739,
      "Ġz": 740,
      "Ġuse": 741,
      "Ġvalue": 742,
      "ula": 743,
      "ween": 744,
      "out": 745,
      "ire": 746,
      "bra": 747,
      "nderstand": 748,
      "Ġpoint": 749,
      "bab": 750,
      "Ġco": 751,
      "tem": 752,
      "ĠQu": 753,
      "vi": 754,
      "Ġve": 755,
      "Ġhow": 756,
      "Ġinto": 757,
      "ollow": 758,
      "Ġmet": 759,
      "ĠĠĊĠĠ": 760,
      "Ġout": 761,
      "ound": 762,
      "ĠRe": 763,
      "Ġits": 764,
      "Ġinv": 765,
      "Ġsub": 766,
      "Ġbetween": 767,
      "Ġsolution": 768,
      "Ġsec": 769,
      "Ġso": 770,
      "ck": 771,
      "Ġar": 772,
      "int": 773,
      "Ġadd": 774,
      "..": 775,
      "vel": 776,
      "ĠJ": 777,
      "oth": 778,
      "Ġpar": 779,
      "theta": 780,
      "orem": 781,
      "now": 782,
      "ĠHow": 783,
      "me": 784,
      "and": 785,
      "11": 786,
      "Ġthan": 787,
      "ength": 788,
      "ĠCalcul": 789,
      "gebra": 790,
      "Ġset": 791,
      "ll": 792,
      "ĠCom": 793,
      "Ġterm": 794,
      "Ġsquare": 795,
      "Ġfollow": 796,
      "Ġmultipl": 797,
      "Ġtra": 798,
      "ating": 799,
      "eterm": 800,
      "mon": 801,
      "Ġfirst": 802,
      "}{\\": 803,
      "20": 804,
      "âĢĻ": 805,
      "ew": 806,
      "Ġfrac": 807,
      "form": 808,
      "Ġwhere": 809,
      "ular": 810,
      "tics": 811,
      "Ġmathema": 812,
      "ake": 813,
      "ication": 814,
      "bability": 815,
      "ĠWhat": 816,
      "In": 817,
      "Ġen": 818,
      "Ġsum": 819,
      "Ġman": 820,
      "Ġcl": 821,
      "Ġthese": 822,
      "Ġarea": 823,
      "Ġany": 824,
      "ments": 825,
      "Ġcirc": 826,
      "ose": 827,
      "Ġob": 828,
      "ĠY": 829,
      "oo": 830,
      "ĠSt": 831,
      "ates": 832,
      "Ġother": 833,
      "Ġ\\((": 834,
      "),": 835,
      "Ġsame": 836,
      "ik": 837,
      "Ġthere": 838,
      "circ": 839,
      "quad": 840,
      "Ġ15": 841,
      "hod": 842,
      "Ġequations": 843,
      "Ġrel": 844,
      "sid": 845,
      "ater": 846,
      "implif": 847,
      "de": 848,
      "Ġdec": 849,
      "so": 850,
      "Ġformula": 851,
      "row": 852,
      "tit": 853,
      "isc": 854,
      "Ġmean": 855,
      "Ġcont": 856,
      "ential": 857,
      "ute": 858,
      "Ġwork": 859,
      "15": 860,
      "ĊĠĠĠĠ": 861,
      "sum": 862,
      "ĠAn": 863,
      "ystem": 864,
      "Ġyour": 865,
      "ĠExample": 866,
      "ast": 867,
      "ays": 868,
      "Ġwhen": 869,
      "^\\": 870,
      "Ġcor": 871,
      "eriv": 872,
      "Ġboth": 873,
      "Ġmore": 874,
      "Ġfactor": 875,
      "tal": 876,
      ")\\)": 877,
      "Ġtime": 878,
      "pon": 879,
      "ĠK": 880,
      "ying": 881,
      "mathbf": 882,
      "sider": 883,
      "ĠEqu": 884,
      "ject": 885,
      "Ex": 886,
      "ount": 887,
      "Ġexample": 888,
      "Ġ<": 889,
      "25": 890,
      "gh": 891,
      "Ġver": 892,
      "ĠCh": 893,
      "ort": 894,
      "tain": 895,
      "Ġj": 896,
      "si": 897,
      "olving": 898,
      "Ġequal": 899,
      "^{-": 900,
      "Ġsuch": 901,
      "ong": 902,
      "ax": 903,
      "olum": 904,
      "Ġget": 905,
      "Ġtheir": 906,
      "Ġlength": 907,
      "Ġbut": 908,
      "Ġim": 909,
      "em": 910,
      "omial": 911,
      "ĠIt": 912,
      "Ġprov": 913,
      "Ġpa": 914,
      "To": 915,
      "hes": 916,
      "Ġ11": 917,
      "________": 918,
      "di": 919,
      "ĠAl": 920,
      "Ġev": 921,
      "Ġans": 922,
      "ks": 923,
      "Ġappl": 924,
      "ics": 925,
      "Ġcomple": 926,
      "ical": 927,
      "pprox": 928,
      "oc": 929,
      "oly": 930,
      "ĠâĢ": 931,
      "sing": 932,
      "trac": 933,
      "Ġneed": 934,
      "led": 935,
      "ip": 936,
      "nderstanding": 937,
      "Ġexpression": 938,
      "ne": 939,
      "one": 940,
      "Ġknow": 941,
      "Ġsolve": 942,
      "cent": 943,
      "Ġele": 944,
      "Ġrepres": 945,
      "hus": 946,
      "Ġused": 947,
      "tial": 948,
      "Ġgraph": 949,
      "fore": 950,
      "equ": 951,
      "Ġresul": 952,
      "ĠNumb": 953,
      "use": 954,
      "Ġsides": 955,
      "Ġ16": 956,
      "Ġinc": 957,
      "$.": 958,
      "Ġright": 959,
      "ata": 960,
      "Ġtriangle": 961,
      "Ġstudents": 962,
      "16": 963,
      "ĠMath": 964,
      "ove": 965,
      "ĠFind": 966,
      "atrix": 967,
      "13": 968,
      "ty": 969,
      "Ġ[": 970,
      "here": 971,
      "Ġden": 972,
      "Ġsecond": 973,
      "ike": 974,
      "ĠLe": 975,
      "Ġup": 976,
      "clud": 977,
      "Ġconst": 978,
      "ell": 979,
      "pm": 980,
      "ive": 981,
      "ise": 982,
      "Ġvalues": 983,
      "und": 984,
      "Con": 985,
      "Ġmin": 986,
      "tep": 987,
      "Ġangle": 988,
      ")(": 989,
      "Ġpoints": 990,
      "eomet": 991,
      "Ġmethod": 992,
      "ince": 993,
      "act": 994,
      "--------": 995,
      "Ġ100": 996,
      "Ġdefin": 997,
      "Ġthey": 998,
      "Ġ200": 999,
      "Ġwhat": 1000,
      "Ġ18": 1001,
      "14": 1002,
      "Ġmany": 1003,
      "Solution": 1004,
      "tage": 1005,
      "ym": 1006,
      "ran": 1007,
      "Ġsc": 1008,
      "\\_": 1009,
      "Ġ$\\": 1010,
      "pend": 1011,
      "ber": 1012,
      "ower": 1013,
      "ici": 1014,
      "Ġwas": 1015,
      "Ġprobability": 1016,
      "Ġanswer": 1017,
      "Ġprodu": 1018,
      "ines": 1019,
      "vers": 1020,
      "Ġcur": 1021,
      "Pro": 1022,
      "Ġdeterm": 1023,
      "Ġthree": 1024,
      "ĠĠĠĠĠ": 1025,
      "Ġexpl": 1026,
      "yp": 1027,
      "Ġabout": 1028,
      "Ġbec": 1029,
      "nswer": 1030,
      "Ġsystem": 1031,
      "op": 1032,
      "olve": 1033,
      "Ġno": 1034,
      "Ġvector": 1035,
      "athema": 1036,
      "ack": 1037,
      "Ġproblems": 1038,
      "ision": 1039,
      "Ġ14": 1040,
      "ati": 1041,
      "rect": 1042,
      "```": 1043,
      "der": 1044,
      "stit": 1045,
      "}(": 1046,
      "Ġfollowing": 1047,
      "ĠWe": 1048,
      "ffici": 1049,
      "})": 1050,
      "log": 1051,
      "ration": 1052,
      "egin": 1053,
      "Ġmod": 1054,
      "Ġonly": 1055,
      "Ġ13": 1056,
      "Ġ25": 1057,
      "inal": 1058,
      "ize": 1059,
      "}}{": 1060,
      "itive": 1061,
      "Ġdifferent": 1062,
      "Ġsome": 1063,
      "cc": 1064,
      "ied": 1065,
      "Ġmeas": 1066,
      "Ġ\\):": 1067,
      "ere": 1068,
      "Ġpre": 1069,
      "cept": 1070,
      "Ġint": 1071,
      "adra": 1072,
      "Ġsim": 1073,
      "Ġwould": 1074,
      "Ġderiv": 1075,
      "Ġside": 1076,
      "ral": 1077,
      "18": 1078,
      "Ġalso": 1079,
      "Ġshow": 1080,
      "Ġhel": 1081,
      "Ġtotal": 1082,
      "Ġdes": 1083,
      "ero": 1084,
      "begin": 1085,
      "ĠTheorem": 1086,
      "tandard": 1087,
      "Ġdi": 1088,
      "rough": 1089,
      "ue": 1090,
      "\\_\\_": 1091,
      "Ġbas": 1092,
      "ener": 1093,
      "Ġi": 1094,
      "Ġmathematical": 1095,
      "Ġ*": 1096,
      "\\(": 1097,
      "bin": 1098,
      "For": 1099,
      "Ġgo": 1100,
      "99": 1101,
      "iel": 1102,
      "Ġlike": 1103,
      "Ġthem": 1104,
      "Ġ>": 1105,
      "ix": 1106,
      "Ġover": 1107,
      "ange": 1108,
      "ĠLevel": 1109,
      "Ġproper": 1110,
      "eter": 1111,
      "Ġ30": 1112,
      "Ġinclud": 1113,
      "Ġmo": 1114,
      "Ġwr": 1115,
      "Ġam": 1116,
      "Ġyear": 1117,
      "Ġterms": 1118,
      "ples": 1119,
      "allen": 1120,
      ")}": 1121,
      "Ch": 1122,
      "ook": 1123,
      "allenge": 1124,
      "50": 1125,
      "ield": 1126,
      "ĠSolution": 1127,
      "olyn": 1128,
      "Ġdata": 1129,
      "olynomial": 1130,
      "$,": 1131,
      "erg": 1132,
      "Ġroot": 1133,
      "Ġreal": 1134,
      "Ġfunctions": 1135,
      "Ġtrans": 1136,
      "ithm": 1137,
      "Ġcircle": 1138,
      "Ġrepresent": 1139,
      "tice": 1140,
      "ted": 1141,
      "ĠGra": 1142,
      "olume": 1143,
      "}^": 1144,
      "cepts": 1145,
      "Ġdistance": 1146,
      "ĠDe": 1147,
      "ĠFunction": 1148,
      "arrow": 1149,
      "ĠThere": 1150,
      "ning": 1151,
      "round": 1152,
      "peed": 1153,
      "ribution": 1154,
      "ss": 1155,
      "Ġpri": 1156,
      "adratic": 1157,
      "ables": 1158,
      "Ġthrough": 1159,
      "umer": 1160,
      "lim": 1161,
      "ual": 1162,
      "ice": 1163,
      "imal": 1164,
      "Thus": 1165,
      "enc": 1166,
      "of": 1167,
      "ten": 1168,
      "eries": 1169,
      "Ġlinear": 1170,
      "ĠMathema": 1171,
      "Ġdig": 1172,
      "Ġ}": 1173,
      "Ġdisc": 1174,
      "estions": 1175,
      "ures": 1176,
      "ĠĠĠĠĠĠĠĠĠĠĠĠĠĠĠĠ": 1177,
      "ational": 1178,
      "put": 1179,
      "omin": 1180,
      "Ġsm": 1181,
      "ĠĠĠ": 1182,
      "ause": 1183,
      "ane": 1184,
      "Ġdoes": 1185,
      "ific": 1186,
      "hen": 1187,
      "Ġoper": 1188,
      "ĠX": 1189,
      "arg": 1190,
      "Ġless": 1191,
      "raw": 1192,
      "ile": 1193,
      "ser": 1194,
      "Ġ24": 1195,
      "Ġimp": 1196,
      "rodu": 1197,
      "dots": 1198,
      "Ġdire": 1199,
      "ĠĠĊ": 1200,
      "60": 1201,
      "Ġfraction": 1202,
      "ences": 1203,
      "sible": 1204,
      "ental": 1205,
      "Ġmust": 1206,
      ".**": 1207,
      "ian": 1208,
      "bol": 1209,
      "ie": 1210,
      "ĠAdd": 1211,
      "Ġ$$": 1212,
      "ĠEquations": 1213,
      "Ġproduct": 1214,
      "_{\\": 1215,
      "cel": 1216,
      "very": 1217,
      "Ġte": 1218,
      "Ġgre": 1219,
      "30": 1220,
      "Ġunderstanding": 1221,
      "erc": 1222,
      "ĠTh": 1223,
      "Ġangles": 1224,
      "}\\).": 1225,
      "ĠTo": 1226,
      "Ġfractions": 1227,
      "Ġforce": 1228,
      "Ġradi": 1229,
      "ective": 1230,
      "ĠSub": 1231,
      "aw": 1232,
      "Ġhelp": 1233,
      "Ġfe": 1234,
      "ole": 1235,
      "line": 1236,
      "))": 1237,
      "ĠAlgebra": 1238,
      "Ġcm": 1239,
      "ension": 1240,
      "ominator": 1241,
      "ful": 1242,
      "Ġcommon": 1243,
      "Ġcent": 1244,
      "equal": 1245,
      "fter": 1246,
      "},": 1247,
      "lope": 1248,
      "angles": 1249,
      "24": 1250,
      "dic": 1251,
      "17": 1252,
      "imum": 1253,
      "usion": 1254,
      "cess": 1255,
      "ved": 1256,
      "Ġmeasure": 1257,
      "ĠĠĊĠ": 1258,
      "Ġrati": 1259,
      "ided": 1260,
      "ications": 1261,
      "If": 1262,
      "matrix": 1263,
      "elta": 1264,
      "ordin": 1265,
      "ares": 1266,
      "Ġpositive": 1267,
      "Ġsimplif": 1268,
      "Ġmatrix": 1269,
      "Ġzero": 1270,
      "pect": 1271,
      "alle": 1272,
      "100": 1273,
      "ities": 1274,
      "Stage": 1275,
      "ĠMultipl": 1276,
      "Ġmake": 1277,
      "Answer": 1278,
      "ced": 1279,
      "ory": 1280,
      "ons": 1281,
      "ruct": 1282,
      "Ġid": 1283,
      "Ġorder": 1284,
      "Ġ`": 1285,
      "ĠQuestion": 1286,
      "Ġcorrect": 1287,
      "}^{": 1288,
      "Ġpercent": 1289,
      "par": 1290,
      "ech": 1291,
      "Ġobject": 1292,
      "ens": 1293,
      "19": 1294,
      "eta": 1295,
      "atement": 1296,
      "ection": 1297,
      "tis": 1298,
      "amples": 1299,
      "ets": 1300,
      "'(": 1301,
      "lect": 1302,
      "com": 1303,
      "anation": 1304,
      "Ġrate": 1305,
      "ick": 1306,
      "valu": 1307,
      "Ġ19": 1308,
      "Ġspeed": 1309,
      "ink": 1310,
      "ĠForm": 1311,
      "Ġanal": 1312,
      "ors": 1313,
      "own": 1314,
      "ldots": 1315,
      "Ġalgebra": 1316,
      "Ġfour": 1317,
      "undam": 1318,
      "Ġsequ": 1319,
      "Ġgener": 1320,
      "ractice": 1321,
      "Sub": 1322,
      "ergy": 1323,
      "Ġbecause": 1324,
      "Ġappro": 1325,
      "Ġreg": 1326,
      "Ġnumer": 1327,
      "Ġconver": 1328,
      "Ġshould": 1329,
      "tional": 1330,
      "Ġconsider": 1331,
      "Ġad": 1332,
      "loc": 1333,
      "Ġcomplex": 1334,
      "Ġ17": 1335,
      "Ġsign": 1336,
      "fty": 1337,
      "Ġcol": 1338,
      "Ġ-\\": 1339,
      "infty": 1340,
      "inu": 1341,
      "Ġcalculate": 1342,
      "pproxim": 1343,
      "clusion": 1344,
      "yth": 1345,
      "leq": 1346,
      "Ġspec": 1347,
      "Ġdenominator": 1348,
      "{(": 1349,
      "where": 1350,
      "Ġpart": 1351,
      "igh": 1352,
      "other": 1353,
      ".,": 1354,
      "entif": 1355,
      "'t": 1356,
      "Ġneg": 1357,
      "Ġpres": 1358,
      "Ġsubtrac": 1359,
      "Ġ50": 1360,
      "rin": 1361,
      "ĠNumbers": 1362,
      "Ġpower": 1363,
      "undamental": 1364,
      "ives": 1365,
      "ug": 1366,
      "Ġdx": 1367,
      "Ġsur": 1368,
      "Ġdetermine": 1369,
      "Ġgeomet": 1370,
      "crib": 1371,
      ")}{": 1372,
      "Ġresult": 1373,
      "Ġevery": 1374,
      "val": 1375,
      "ĠUse": 1376,
      "Ġpolynomial": 1377,
      "Let": 1378,
      "roup": 1379,
      "ote": 1380,
      "Ġconstant": 1381,
      "Ġsolutions": 1382,
      "urn": 1383,
      "Ġstandard": 1384,
      "approx": 1385,
      "Challenge": 1386,
      "pha": 1387,
      "ĠFrac": 1388,
      "Ġbo": 1389,
      "ĠUn": 1390,
      "tern": 1391,
      "Ġtimes": 1392,
      "tatis": 1393,
      "40": 1394,
      "ĠLine": 1395,
      "locity": 1396,
      "vity": 1397,
      "Ġ(-": 1398,
      "reas": 1399,
      "Ġchange": 1400,
      "ĠDiv": 1401,
      "ode": 1402,
      "ysis": 1403,
      "fficient": 1404,
      "Ġhour": 1405,
      "Ġaddition": 1406,
      "Ġrema": 1407,
      "hys": 1408,
      "ey": 1409,
      "verage": 1410,
      "Ġseries": 1411,
      "iqu": 1412,
      "Com": 1413,
      "Ġorig": 1414,
      "Ġtheorem": 1415,
      "Ġvelocity": 1416,
      "Ġins": 1417,
      "Ġcub": 1418,
      "Ġrequ": 1419,
      "tan": 1420,
      "75": 1421,
      "formation": 1422,
      "Ġend": 1423,
      "Ġmass": 1424,
      "ĠCl": 1425,
      "ency": 1426,
      "ep": 1427,
      "Ġ\\(-": 1428,
      "Ġleft": 1429,
      "Ġway": 1430,
      "rate": 1431,
      "Ġpossible": 1432,
      "):": 1433,
      "ĠYou": 1434,
      "bmatrix": 1435,
      "Ġfield": 1436,
      "Ġstra": 1437,
      "Ġheight": 1438,
      "uch": 1439,
      "ng": 1440,
      "Calcul": 1441,
      "Ġderivative": 1442,
      "onomet": 1443,
      "Ġsolving": 1444,
      "sed": 1445,
      "33": 1446,
      "ilar": 1447,
      "imension": 1448,
      "Example": 1449,
      "alpha": 1450,
      "ild": 1451,
      "iding": 1452,
      "rigonomet": 1453,
      "Ġdeg": 1454,
      "arge": 1455,
      "Ġratio": 1456,
      "div": 1457,
      "Ġnegative": 1458,
      "Ġbase": 1459,
      "rea": 1460,
      "apter": 1461,
      "Ġacc": 1462,
      "Ġdistribution": 1463,
      "ationsh": 1464,
      "Ġabove": 1465,
      "Ġinvol": 1466,
      "Ġop": 1467,
      "Ġvariable": 1468,
      "Ġlim": 1469,
      "Ġquadratic": 1470,
      "day": 1471,
      "Ġ40": 1472,
      "Ġintegral": 1473,
      "old": 1474,
      "Ġvolume": 1475,
      "Ġag": 1476,
      "rue": 1477,
      "face": 1478,
      "gor": 1479,
      "Ġdecimal": 1480,
      "Ġund": 1481,
      "Ġexpon": 1482,
      "Find": 1483,
      "ĠNumber": 1484,
      "Ġgives": 1485,
      "Ġlog": 1486,
      "Ġsee": 1487,
      "Ġyears": 1488,
      "Ġext": 1489,
      "ring": 1490,
      "?**": 1491,
      "up": 1492,
      "22": 1493,
      "Ġclass": 1494,
      "ĠQ": 1495,
      "ib": 1496,
      "Ġ&=": 1497,
      "ĠĊ": 1498,
      "Ġmath": 1499,
      "ypot": 1500,
      "ĠPl": 1501,
      "Ġsmall": 1502,
      "We": 1503,
      "Ġ{": 1504,
      "...": 1505,
      "celer": 1506,
      "Ġquestion": 1507,
      "Ġmodel": 1508,
      "Ġapproxim": 1509,
      "mathbb": 1510,
      "Ġdifference": 1511,
      "Ġprocess": 1512,
      "Ġ/": 1513,
      "amb": 1514,
      "Problem": 1515,
      "ulation": 1516,
      "ven": 1517,
      "Ġ60": 1518,
      "view": 1519,
      "Question": 1520,
      "Ġtop": 1521,
      "aking": 1522,
      "Ġstart": 1523,
      "Ġnon": 1524,
      "ards": 1525,
      "ĠAs": 1526,
      "ĠSolving": 1527,
      "ĠInt": 1528,
      "ray": 1529,
      "}$": 1530,
      "Re": 1531,
      "Ġrect": 1532,
      "Ġfound": 1533,
      "pos": 1534,
      "ln": 1535,
      "Ġconcepts": 1536,
      "ĊĠĠĠĠĠĠĠ": 1537,
      "Ġsym": 1538,
      "Ġeven": 1539,
      "Ġprime": 1540,
      "ross": 1541,
      "Ġsequence": 1542,
      "Ġradius": 1543,
      "dx": 1544,
      "Ġax": 1545,
      "ĠâĢĵ": 1546,
      "36": 1547,
      "45": 1548,
      "Ġproperties": 1549,
      "Ġmax": 1550,
      "Ġdefined": 1551,
      "por": 1552,
      "ĠCalculus": 1553,
      "Ġed": 1554,
      "Ġunits": 1555,
      "Ġlong": 1556,
      "28": 1557,
      "mu": 1558,
      "Ġunit": 1559,
      "rent": 1560,
      "heck": 1561,
      "Ġes": 1562,
      "Ġmultiplication": 1563,
      "ĠSolve": 1564,
      "planation": 1565,
      "align": 1566,
      "ĠLet": 1567,
      "roduction": 1568,
      "Ġlear": 1569,
      "Ġlines": 1570,
      "Ġdraw": 1571,
      "Ġdis": 1572,
      "Ġour": 1573,
      "oint": 1574,
      "Delta": 1575,
      "da": 1576,
      "Ġlet": 1577,
      "Ġjust": 1578,
      "Ġcontain": 1579,
      "Ġdivis": 1580,
      "Ġtest": 1581,
      "Ġcal": 1582,
      "Ġslope": 1583,
      "Ġpartic": 1584,
      "Ġnew": 1585,
      "Ġinterest": 1586,
      "}_": 1587,
      "Ġrelationsh": 1588,
      "allel": 1589,
      "Ġmay": 1590,
      "ature": 1591,
      "AT": 1592,
      "Ġenergy": 1593,
      "Ġmathematics": 1594,
      "Ġexpressions": 1595,
      "stitute": 1596,
      "21": 1597,
      "Ġinteger": 1598,
      "ĠUsing": 1599,
      "Ġdiag": 1600,
      "itial": 1601,
      "Ġvariables": 1602,
      "Ġvarious": 1603,
      "ussion": 1604,
      "ĠAB": 1605,
      "ave": 1606,
      "\\):": 1607,
      "hed": 1608,
      "ĠWh": 1609,
      "ival": 1610,
      "ĠFunctions": 1611,
      "teps": 1612,
      "red": 1613,
      "she": 1614,
      "Ġmeans": 1615,
      "Ġdirection": 1616,
      "Ġcar": 1617,
      "{-": 1618,
      "quares": 1619,
      "Given": 1620,
      "Ġinvolves": 1621,
      "ĊĊĠ": 1622,
      "ocus": 1623,
      "ambda": 1624,
      "Ġdown": 1625,
      "Ġran": 1626,
      "mber": 1627,
      "ges": 1628,
      "ish": 1629,
      "ĠSo": 1630,
      "ĠTherefore": 1631,
      "Ġinde": 1632,
      "ĠSh": 1633,
      "over": 1634,
      "Ġ#": 1635,
      "ĠPer": 1636,
      "Ġcoordin": 1637,
      "23": 1638,
      "Ġret": 1639,
      ")\\).": 1640,
      "Ġprovides": 1641,
      "Ġcontinu": 1642,
      "riangle": 1643,
      "implies": 1644,
      "ark": 1645,
      "________________": 1646,
      "ĠPyth": 1647,
      "ĠFactor": 1648,
      "Ġafter": 1649,
      "ool": 1650,
      "ail": 1651,
      "27": 1652,
      "rees": 1653,
      "Ġ(\\": 1654,
      "Consider": 1655,
      "Ġpair": 1656,
      "istance": 1657,
      "Ġtake": 1658,
      "cal": 1659,
      "hysics": 1660,
      "inder": 1661,
      "utes": 1662,
      "for": 1663,
      "ude": 1664,
      "Ġtriangles": 1665,
      "Ġfig": 1666,
      "lock": 1667,
      "(-": 1668,
      "Ġconf": 1669,
      "celeration": 1670,
      "Ġanother": 1671,
      "Ġinterval": 1672,
      "ever": 1673,
      "lambda": 1674,
      "Ġcoe": 1675,
      "aces": 1676,
      "Ġcase": 1677,
      "ĠGraph": 1678,
      "ĠCalculate": 1679,
      "Ġfl": 1680,
      "Ġintegers": 1681,
      "Ġfactors": 1682,
      "echn": 1683,
      "What": 1684,
      "work": 1685,
      "Ġcons": 1686,
      "gorithm": 1687,
      "ormal": 1688,
      "Ġwere": 1689,
      "Ġ27": 1690,
      "Ġoperations": 1691,
      ")\\": 1692,
      "Ġaverage": 1693,
      "ĠInteg": 1694,
      "oriz": 1695,
      "80": 1696,
      "ĠThen": 1697,
      "Ġcalculated": 1698,
      "partial": 1699,
      "ultiple": 1700,
      "osite": 1701,
      "ists": 1702,
      "Ġ36": 1703,
      "ĠMe": 1704,
      "ĠAppl": 1705,
      "Ġmy": 1706,
      "35": 1707,
      "uring": 1708,
      "Ġcalled": 1709,
      "get": 1710,
      "ĠTra": 1711,
      "ired": 1712,
      "Ġrec": 1713,
      "not": 1714,
      "Ġunder": 1715,
      "ĠRes": 1716,
      "rite": 1717,
      "Ġscal": 1718,
      "Ġcontent": 1719,
      "otal": 1720,
      "Ġcould": 1721,
      "Ġfeet": 1722,
      "Ġtrue": 1723,
      "Ġinequal": 1724,
      "ixed": 1725,
      "Ġdivision": 1726,
      "ĠFractions": 1727,
      "Ġcombin": 1728,
      "Ġmuch": 1729,
      "akes": 1730,
      "av": 1731,
      "Ġplane": 1732,
      "Ġleast": 1733,
      "Ġdigits": 1734,
      "ible": 1735,
      "ĠSp": 1736,
      "Ġsample": 1737,
      "Ġsimple": 1738,
      "Ġwhole": 1739,
      "Ġ:": 1740,
      "\\_\\_\\_\\_": 1741,
      "met": 1742,
      "Ġq": 1743,
      "rinci": 1744,
      "Ġword": 1745,
      "Ġmultiply": 1746,
      "Ġsk": 1747,
      "inary": 1748,
      "ĠCont": 1749,
      "Ġback": 1750,
      "rip": 1751,
      "Ġcomput": 1752,
      "ings": 1753,
      "ining": 1754,
      "Ġquestions": 1755,
      "ren": 1756,
      "requ": 1757,
      "Ġmag": 1758,
      "ithme": 1759,
      "ird": 1760,
      "Ġcenter": 1761,
      "*}": 1762,
      "ization": 1763,
      "Ġexact": 1764,
      "Ġru": 1765,
      "Ġplace": 1766,
      "ĠDec": 1767,
      "90": 1768,
      "An": 1769,
      "osted": 1770,
      "Ġfocus": 1771,
      "Â°": 1772,
      "orizon": 1773,
      "ĠProblems": 1774,
      "Ġ21": 1775,
      "read": 1776,
      "pond": 1777,
      "ror": 1778,
      "Ġlimit": 1779,
      "ĠInter": 1780,
      "St": 1781,
      "There": 1782,
      "Ġconcept": 1783,
      "ult": 1784,
      "pendent": 1785,
      "ithmetic": 1786,
      "Ġrow": 1787,
      "ĠDiffer": 1788,
      "oot": 1789,
      "âĢĿ": 1790,
      "Ġunderstand": 1791,
      "Ġquan": 1792,
      "Right": 1793,
      "ndom": 1794,
      "Ġwrit": 1795,
      "ways": 1796,
      "Ġhypot": 1797,
      "ĠSimplif": 1798,
      "Ġoriginal": 1799,
      "Ġresults": 1800,
      "ĠAr": 1801,
      "Ġ\\([": 1802,
      "ĠSince": 1803,
      "Ġdescrib": 1804,
      "Ġcount": 1805,
      "Ġsurface": 1806,
      "Ġrange": 1807,
      "Ġcurrent": 1808,
      "ia": 1809,
      "Ġ28": 1810,
      "ĠZ": 1811,
      "rice": 1812,
      "pri": 1813,
      "Ġspace": 1814,
      "ivalent": 1815,
      "arithm": 1816,
      "Ġamount": 1817,
      "Ġopp": 1818,
      "rightarrow": 1819,
      "ĠChapter": 1820,
      "ĠWork": 1821,
      "ĠĠĠĠĠĠĠĠĠ": 1822,
      "à¤": 1823,
      "Ġcho": 1824,
      "ĠExerc": 1825,
      "erse": 1826,
      "ank": 1827,
      "ference": 1828,
      "Ġrule": 1829,
      "Ġeas": 1830,
      "Ġgroup": 1831,
      "Ġ'": 1832,
      "Using": 1833,
      "ually": 1834,
      "Ġrandom": 1835,
      "Ġball": 1836,
      "ises": 1837,
      "Ġ45": 1838,
      "ĠMet": 1839,
      "lop": 1840,
      "ĠIntroduction": 1841,
      "alf": 1842,
      "Ġcre": 1843,
      "elf": 1844,
      "ĠConclusion": 1845,
      "vec": 1846,
      "oun": 1847,
      "ĠTwo": 1848,
      "Ġwhile": 1849,
      "dition": 1850,
      "iles": 1851,
      ".\"": 1852,
      "ull": 1853,
      "ex": 1854,
      "\\%": 1855,
      "26": 1856,
      "ĠMathematics": 1857,
      "angent": 1858,
      "ĠLinear": 1859,
      "Ġinters": 1860,
      "Ġinst": 1861,
      "Ġways": 1862,
      "How": 1863,
      "ĠPythag": 1864,
      "ĠWhen": 1865,
      "ĠGeomet": 1866,
      "sure": 1867,
      "etermine": 1868,
      "ron": 1869,
      "Ġbu": 1870,
      "200": 1871,
      "uth": 1872,
      "Ġmon": 1873,
      "wers": 1874,
      "finite": 1875,
      "ately": 1876,
      "Ġlarg": 1877,
      "mp": 1878,
      "Ġmost": 1879,
      "respond": 1880,
      "pression": 1881,
      "ĠâĢľ": 1882,
      "Ġ90": 1883,
      "Ġroots": 1884,
      "Ġsquares": 1885,
      "ages": 1886,
      "Ġtable": 1887,
      "Rightarrow": 1888,
      "AB": 1889,
      "Ġsize": 1890,
      "Ġhours": 1891,
      "ĠEquation": 1892,
      "ither": 1893,
      "Ġ23": 1894,
      "Ġact": 1895,
      "ĠBy": 1896,
      "ĠAddition": 1897,
      "onal": 1898,
      "ips": 1899,
      "Ġgu": 1900,
      "Ġwater": 1901,
      "Ġbeen": 1902,
      "ĠStud": 1903,
      "ĠDisc": 1904,
      "cial": 1905,
      "olog": 1906,
      "ĠAng": 1907,
      "ĠMathematical": 1908,
      "Ġfollows": 1909,
      "Ġwrite": 1910,
      "igma": 1911,
      "Ġpe": 1912,
      "Ġgreater": 1913,
      "Ġelement": 1914,
      "ases": 1915,
      "Ġmaximum": 1916,
      "Ġlook": 1917,
      "}\\),": 1918,
      "Ġâ": 1919,
      "ĠValu": 1920,
      "chool": 1921,
      "Ġdigit": 1922,
      "Ġknown": 1923,
      "Ġer": 1924,
      "Ġpat": 1925,
      "Ġfundamental": 1926,
      "ins": 1927,
      "Ġwithout": 1928,
      "igit": 1929,
      "Ġelect": 1930,
      "rigonometric": 1931,
      "Ġapp": 1932,
      "ĠSubtrac": 1933,
      "Ġexpressed": 1934,
      ");": 1935,
      "range": 1936,
      "pre": 1937,
      "Ġcy": 1938,
      "Ġweight": 1939,
      "ner": 1940,
      "ĠPM": 1941,
      "ĠThus": 1942,
      "Ġapplications": 1943,
      "Ġreturn": 1944,
      "bs": 1945,
      "Ġhigh": 1946,
      "Ġimport": 1947,
      "imals": 1948,
      "urther": 1949,
      "Ġbased": 1950,
      "32": 1951,
      "Ġminutes": 1952,
      "ĠArea": 1953,
      "Ġgeneral": 1954,
      "orizontal": 1955,
      "ĠStatement": 1956,
      "Ġparallel": 1957,
      "ural": 1958,
      "geq": 1959,
      "Ġwant": 1960,
      "ward": 1961,
      "oment": 1962,
      "Ġpropor": 1963,
      "Ġcost": 1964,
      "Ġstep": 1965,
      "iod": 1966,
      "Ġodd": 1967,
      ")^{": 1968,
      "Ġeff": 1969,
      "Ġbelow": 1970,
      "uc": 1971,
      "ason": 1972,
      "Ġpop": 1973,
      ")**": 1974,
      "vert": 1975,
      "Ġdivide": 1976,
      "Ġcurve": 1977,
      "Ġsimilar": 1978,
      "orean": 1979,
      "Ġthink": 1980,
      "Ġrot": 1981,
      "Ġalways": 1982,
      "Ġrational": 1983,
      "lear": 1984,
      "Ġcorrespond": 1985,
      "Ġread": 1986,
      "tes": 1987,
      "Ġ(\\(": 1988,
      "Ġacceleration": 1989,
      "Ġ22": 1990,
      "Ġincreas": 1991,
      "Ġinitial": 1992,
      "gether": 1993,
      "imeter": 1994,
      "oid": 1995,
      "Ġindic": 1996,
      "Ġmultiple": 1997,
      "48": 1998,
      "Ġrepresents": 1999,
      "ĠHel": 2000,
      "tatistics": 2001,
      "Ġdegrees": 2002,
      "Ġshe": 2003,
      "Ġkm": 2004,
      "ĠĠĠĠĠĠ": 2005,
      "tivity": 2006,
      "Ġallow": 2007,
      "ĠAnal": 2008,
      ")\\),": 2009,
      "Ġincluding": 2010,
      "ĠProbability": 2011,
      "ĠOn": 2012,
      "Ġposition": 2013,
      "ĠClass": 2014,
      "Ġinverse": 2015,
      "Ġcalculus": 2016,
      "min": 2017,
      "Ġassum": 2018,
      "lection": 2019,
      "Ġdifferenti": 2020,
      "version": 2021,
      "Ġocc": 2022,
      "Ġelements": 2023,
      "As": 2024,
      "Ġrelationship": 2025,
      "Ġproof": 2026,
      "Ġhis": 2027,
      "ade": 2028,
      "Ġfin": 2029,
      "place": 2030,
      "Ġnumerator": 2031,
      "ape": 2032,
      "inter": 2033,
      "Al": 2034,
      "Ġmotion": 2035,
      "Ġplay": 2036,
      "Ġeng": 2037,
      "Ġsince": 2038,
      "ized": 2039,
      "Ġ26": 2040,
      "orld": 2041,
      "Ġsteps": 2042,
      "Ġtyp": 2043,
      "cm": 2044,
      "icular": 2045,
      "Ġmethods": 2046,
      "Ġspecific": 2047,
      "Ġgeometric": 2048,
      "sc": 2049,
      "pendicular": 2050,
      "ga": 2051,
      "ĠHe": 2052,
      "ĠQuestions": 2053,
      "tex": 2054,
      "ĠOne": 2055,
      "):**": 2056,
      "Ġcolum": 2057,
      "Ġinvolving": 2058,
      "Ġcontinuous": 2059,
      "Ġapproach": 2060,
      "pa": 2061,
      "29": 2062,
      "Solve": 2063,
      "ype": 2064,
      "Ġsection": 2065,
      "ĠIs": 2066,
      "ĠPythagorean": 2067,
      "Ġkg": 2068,
      "Ġoften": 2069,
      "Ġestim": 2070,
      "Ġinformation": 2071,
      "ĠAnswer": 2072,
      "entify": 2073,
      "con": 2074,
      "ĠThey": 2075,
      "Ġ35": 2076,
      "esson": 2077,
      "ants": 2078,
      "|--------": 2079,
      "05": 2080,
      "ho": 2081,
      "Ġnext": 2082,
      "ough": 2083,
      "Ġparts": 2084,
      "sf": 2085,
      "ton": 2086,
      "ms": 2087,
      "Ġtogether": 2088,
      "Ġstraight": 2089,
      "Ġanalysis": 2090,
      "Ġmeters": 2091,
      "ĠRel": 2092,
      "Ġbl": 2093,
      "Ġexper": 2094,
      "cience": 2095,
      "Ġvertical": 2096,
      "arch": 2097,
      "rease": 2098,
      "gram": 2099,
      "ĠProper": 2100,
      "Ġinches": 2101,
      "ier": 2102,
      "axis": 2103,
      "Ġequivalent": 2104,
      "ii": 2105,
      "atives": 2106,
      "ĠĠĊĠĠĠ": 2107,
      "Ġprinci": 2108,
      "ĠVari": 2109,
      "Ġlevel": 2110,
      "Ġidenti": 2111,
      "yz": 2112,
      "Since": 2113,
      "ĠCirc": 2114,
      "ically": 2115,
      "Ġalgorithm": 2116,
      "Ġstruct": 2117,
      "Ġfinding": 2118,
      "verse": 2119,
      "osts": 2120,
      "ering": 2121,
      "Ġhalf": 2122,
      "Ġess": 2123,
      "Ġdivided": 2124,
      "pro": 2125,
      "phi": 2126,
      "Ġtechn": 2127,
      "ars": 2128,
      "ingle": 2129,
      "ulas": 2130,
      "beta": 2131,
      "Ġfrequ": 2132,
      "omega": 2133,
      "ĠUnderstanding": 2134,
      "ans": 2135,
      "ĠTrans": 2136,
      "omework": 2137,
      "Ġhand": 2138,
      "}}{\\": 2139,
      "Ġmid": 2140,
      "atisf": 2141,
      "Ġvectors": 2142,
      "Ġchang": 2143,
      "ime": 2144,
      "ople": 2145,
      "rid": 2146,
      "ĠAM": 2147,
      "viation": 2148,
      "ĠHelp": 2149,
      "ĠSim": 2150,
      "Ġexplain": 2151,
      "vious": 2152,
      "ĠSum": 2153,
      "Ġsimpl": 2154,
      "ĠSystem": 2155,
      "Ġvery": 2156,
      "Ġ\\{": 2157,
      "Th": 2158,
      "array": 2159,
      "omain": 2160,
      "itude": 2161,
      "ĠCan": 2162,
      "orrect": 2163,
      "ĠAt": 2164,
      "Ġlearn": 2165,
      "-\\": 2166,
      "Ġlast": 2167,
      "ob": 2168,
      "itions": 2169,
      "ector": 2170,
      "Ġnormal": 2171,
      "Ġhere": 2172,
      "Ġpass": 2173,
      "angular": 2174,
      "//": 2175,
      "eters": 2176,
      "rm": 2177,
      "Ġbeing": 2178,
      "Ġlarge": 2179,
      "ĠThese": 2180,
      "velop": 2181,
      "Ġvis": 2182,
      "44": 2183,
      "Ġnow": 2184,
      "Ġpractice": 2185,
      "Ġopposite": 2186,
      "Ġperform": 2187,
      "Ġfigure": 2188,
      "Ġsatisf": 2189,
      "ĠStep": 2190,
      "ĠMethod": 2191,
      "Ġoff": 2192,
      "Ġfact": 2193,
      "ĠNot": 2194,
      "Ġcomplete": 2195,
      "Ġexamples": 2196,
      "ily": 2197,
      "ĠFormula": 2198,
      "rang": 2199,
      "ha": 2200,
      "sec": 2201,
      "Posted": 2202,
      "Math": 2203,
      "Ġ32": 2204,
      "sigma": 2205,
      "66": 2206,
      "Ġparticular": 2207,
      "ule": 2208,
      "ĠPractice": 2209,
      "Ġdid": 2210,
      "70": 2211,
      "Ġaround": 2212,
      "ĠSolutions": 2213,
      "Ġevalu": 2214,
      "Ġcap": 2215,
      "Ġbefore": 2216,
      "Calculate": 2217,
      "Ġtem": 2218,
      "Ġconn": 2219,
      "Ġoccur": 2220,
      "ER": 2221,
      "omes": 2222,
      "ĊĊĠĠĠ": 2223,
      "Ġcompon": 2224,
      "ĠLaw": 2225,
      "Ġwithin": 2226,
      "Ġobtain": 2227,
      "Simplif": 2228,
      "ok": 2229,
      "Ġrectangle": 2230,
      ")$": 2231,
      "crip": 2232,
      "ĠNew": 2233,
      "Ġexactly": 2234,
      "Ġdays": 2235,
      "Ġpopulation": 2236,
      "Ġpers": 2237,
      "raph": 2238,
      "Ġdue": 2239,
      "Ġpeople": 2240,
      "Ġhorizontal": 2241,
      "Ġstudent": 2242,
      "Ġobser": 2243,
      "Ġrelated": 2244,
      "Ġcheck": 2245,
      "zz": 2246,
      "Ġprice": 2247,
      "CD": 2248,
      "til": 2249,
      "Ġlist": 2250,
      "iff": 2251,
      "Ġthird": 2252,
      "ules": 2253,
      "Ġass": 2254,
      "olute": 2255,
      "osed": 2256,
      "ĠExpression": 2257,
      "ĠValue": 2258,
      "ĠPre": 2259,
      "dy": 2260,
      "^{\\": 2261,
      "34": 2262,
      "atural": 2263,
      "rices": 2264,
      "ferences": 2265,
      "Ġperiod": 2266,
      "Ġtool": 2267,
      "ateral": 2268,
      "Ġref": 2269,
      "Ġlaw": 2270,
      "Ġcru": 2271,
      "Ġide": 2272,
      "oll": 2273,
      "Ġsay": 2274,
      "Ġdimension": 2275,
      "Ġdifferential": 2276,
      "ĠNo": 2277,
      "Ġprovide": 2278,
      "van": 2279,
      "ĠGeometry": 2280,
      "Ġwritten": 2281,
      "Ġproperty": 2282,
      "ĠDefin": 2283,
      "Ġsignific": 2284,
      "ources": 2285,
      "Ġdesign": 2286,
      "Ġinclude": 2287,
      "olyg": 2288,
      "Ġwell": 2289,
      "Ġbox": 2290,
      "Ġdetermin": 2291,
      "utive": 2292,
      "ique": 2293,
      "Ġconvert": 2294,
      "fect": 2295,
      "ris": 2296,
      "inomial": 2297,
      "ĠDo": 2298,
      "ĠHowever": 2299,
      "Ġthose": 2300,
      "ĠEn": 2301,
      "Ġsl": 2302,
      "Ġeither": 2303,
      "Now": 2304,
      "Ġalong": 2305,
      "Ġcrucial": 2306,
      "Ġcoordinates": 2307,
      "ĠSquare": 2308,
      "Ġprovided": 2309,
      "ses": 2310,
      "Ġstate": 2311,
      "Ġexp": 2312,
      "ĠĠĠĠĠĠĠ": 2313,
      "Ġmed": 2314,
      "Ġdon": 2315,
      "Ġstates": 2316,
      "Ġ29": 2317,
      "dt": 2318,
      "0000": 2319,
      "ectively": 2320,
      "Ġdirect": 2321,
      "ĠAc": 2322,
      "01": 2323,
      "Ġalgebraic": 2324,
      "Ġtangent": 2325,
      "Ġvol": 2326,
      "tices": 2327,
      "Ġgeometry": 2328,
      "ĠGiven": 2329,
      "Ġseg": 2330,
      "Ġlit": 2331,
      "ior": 2332,
      "Ġperpendicular": 2333,
      "ourse": 2334,
      "Ġcannot": 2335,
      "rit": 2336,
      "uting": 2337,
      "ĠMod": 2338,
      "64": 2339,
      "Ġmain": 2340,
      "Ġredu": 2341,
      "enuse": 2342,
      "yn": 2343,
      "upp": 2344,
      "Ġsystems": 2345,
      "Ġtransform": 2346,
      "dfrac": 2347,
      "Step": 2348,
      "Ġsingle": 2349,
      "ĠTest": 2350,
      "Ġmis": 2351,
      "Ġinequality": 2352,
      "Ġbound": 2353,
      "oints": 2354,
      "Ġdivisible": 2355,
      "by": 2356,
      "ern": 2357,
      "Ġlead": 2358,
      "Ġvertex": 2359,
      "ĠSet": 2360,
      "Solving": 2361,
      "Ġask": 2362,
      "binom": 2363,
      "ĠExpon": 2364,
      "Ġrequired": 2365,
      "ĠCo": 2366,
      "Ġchild": 2367,
      "Ġsta": 2368,
      "digit": 2369,
      "Ġsmaller": 2370,
      "ills": 2371,
      "ĠFe": 2372,
      "acher": 2373,
      "Ġ80": 2374,
      "ĠComple": 2375,
      "Ġwho": 2376,
      "Ġsimplify": 2377,
      "ĠPa": 2378,
      "ĠInd": 2379,
      "perature": 2380,
      "anks": 2381,
      "ameter": 2382,
      "ditions": 2383,
      "By": 2384,
      "ify": 2385,
      "ument": 2386,
      "idth": 2387,
      "Ġmight": 2388,
      "Ġmoment": 2389,
      "Ġstatement": 2390,
      "78": 2391,
      "Explanation": 2392,
      "gru": 2393,
      "Ġday": 2394,
      "When": 2395,
      "You": 2396,
      "Ġem": 2397,
      "Ġsa": 2398,
      "ruction": 2399,
      "uzz": 2400,
      "Ġpresent": 2401,
      "ouble": 2402,
      "49": 2403,
      "ertain": 2404,
      "Ġgreat": 2405,
      "Ġsymmet": 2406,
      "Ġmonth": 2407,
      "Ġhad": 2408,
      "Ġinput": 2409,
      "otential": 2410,
      "56": 2411,
      "ĠBas": 2412,
      "neq": 2413,
      "Ġapproximately": 2414,
      "rals": 2415,
      "Ġ2010": 2416,
      "Ġarithmetic": 2417,
      "idence": 2418,
      "ĠComp": 2419,
      "pt": 2420,
      "rams": 2421,
      "ilon": 2422,
      "erivative": 2423,
      "So": 2424,
      "Ġcalculator": 2425,
      "38": 2426,
      "Ġbecomes": 2427,
      "Ġlesson": 2428,
      "Ġhig": 2429,
      "psilon": 2430,
      "ĠHere": 2431,
      "igen": 2432,
      "Ġerror": 2433,
      "Ġessential": 2434,
      "kg": 2435,
      "ology": 2436,
      "Ġ180": 2437,
      "Ġbasic": 2438,
      "Note": 2439,
      "ĠDes": 2440,
      "Ġfurther": 2441,
      "Add": 2442,
      "Ġclear": 2443,
      "ĠMultiply": 2444,
      "izing": 2445,
      "jective": 2446,
      "Ġstudy": 2447,
      "Ġsymbol": 2448,
      "Ġcoin": 2449,
      "ĠDetermine": 2450,
      "Ġabs": 2451,
      "ĠPar": 2452,
      "://": 2453,
      "Ġimportant": 2454,
      "Ġexpect": 2455,
      "Ġ2009": 2456,
      "ĠExplanation": 2457,
      "apes": 2458,
      "Ġmagn": 2459,
      "Ġprof": 2460,
      "Ġmade": 2461,
      "ineering": 2462,
      "ww": 2463,
      "sheet": 2464,
      "Ġcalculations": 2465,
      "xy": 2466,
      "gg": 2467,
      "55": 2468,
      "Ġindependent": 2469,
      "monst": 2470,
      "Ġrepe": 2471,
      "hing": 2472,
      "ĠId": 2473,
      "Ġdone": 2474,
      "37": 2475,
      "ĠAnalysis": 2476,
      "Ġlengths": 2477,
      "fficients": 2478,
      "ames": 2479,
      "Ġparam": 2480,
      "Ġreason": 2481,
      "Ġtw": 2482,
      "uit": 2483,
      "ooks": 2484,
      "ression": 2485,
      "Ġlogarithm": 2486,
      "duct": 2487,
      "Ġtext": 2488,
      "Ġph": 2489,
      "](": 2490,
      "ĠOr": 2491,
      "SE": 2492,
      "pmatrix": 2493,
      "Ġtry": 2494,
      "Ġagain": 2495,
      "ances": 2496,
      "Ġdefinition": 2497,
      "Ġ48": 2498,
      "Ġ2012": 2499,
      "ecess": 2500,
      "Ġsubtraction": 2501,
      "ification": 2502,
      "ott": 2503,
      "ON": 2504,
      "ĠMultiplication": 2505,
      "ĠEach": 2506,
      "ĠCalculation": 2507,
      "oti": 2508,
      "Ġloc": 2509,
      "Ġgame": 2510,
      "Ġsets": 2511,
      "ĠFundamental": 2512,
      "ource": 2513,
      "ilities": 2514,
      "Ġshape": 2515,
      "hesis": 2516,
      "ĠCommon": 2517,
      "Ġmiles": 2518,
      "Ġwhether": 2519,
      "Ġmove": 2520,
      "fine": 2521,
      "way": 2522,
      "Ġwhy": 2523,
      "Ġdeviation": 2524,
      "aches": 2525,
      "Ġobjects": 2526,
      "Ġrun": 2527,
      "Ġfive": 2528,
      "know": 2529,
      "Ġintegration": 2530,
      "Ġent": 2531,
      "Ġkey": 2532,
      "\\}": 2533,
      "Ġmultiplying": 2534,
      "rel": 2535,
      "Ġapply": 2536,
      "utor": 2537,
      "ĠII": 2538,
      "39": 2539,
      "ĠDist": 2540,
      "stituting": 2541,
      "ĠAll": 2542,
      "ĠExamples": 2543,
      "Ġflow": 2544,
      "Ġnatural": 2545,
      "ĠEar": 2546,
      "ĠFirst": 2547,
      "Ġneeded": 2548,
      "ĠTriangle": 2549,
      "Ġcube": 2550,
      "Ġtheory": 2551,
      "Ġgive": 2552,
      "Ġquanti": 2553,
      "Ġ1000": 2554,
      "lease": 2555,
      "ĠPart": 2556,
      "Ġpercentage": 2557,
      "Ġear": 2558,
      "Ġuseful": 2559,
      "Ġdevelop": 2560,
      "Ġcoefficient": 2561,
      "ĠExpl": 2562,
      "From": 2563,
      "ense": 2564,
      "Ġcorresponding": 2565,
      "ĠLesson": 2566,
      "Ġconditions": 2567,
      "ĠLog": 2568,
      "stitution": 2569,
      "wise": 2570,
      "ek": 2571,
      "ming": 2572,
      "ores": 2573,
      "erial": 2574,
      "Ġconc": 2575,
      "Ġshows": 2576,
      "Ġav": 2577,
      "arac": 2578,
      "ora": 2579,
      "olar": 2580,
      "ĠRs": 2581,
      "roups": 2582,
      "Ġ2011": 2583,
      "Ġround": 2584,
      "point": 2585,
      "Multipl": 2586,
      "Ġprove": 2587,
      "+\\": 2588,
      "Ġinfinite": 2589,
      "ĠAd": 2590,
      "76": 2591,
      "ĠGrade": 2592,
      "Ġlo": 2593,
      "ters": 2594,
      "Ġcertain": 2595,
      "ĠMo": 2596,
      "Ġlarger": 2597,
      "Ġmaking": 2598,
      "Ġresp": 2599,
      "ĠInequal": 2600,
      "uthor": 2601,
      "ights": 2602,
      "any": 2603,
      "ified": 2604,
      "ext": 2605,
      "Ġred": 2606,
      "De": 2607,
      "Ġsupp": 2608,
      "ivers": 2609,
      "Ġadding": 2610,
      "Ġrest": 2611,
      "intercept": 2612,
      "Substitute": 2613,
      "Ġfinal": 2614,
      "Ġtype": 2615,
      "Ġtravel": 2616,
      "rint": 2617,
      "Ġidentity": 2618,
      "Ġcalculation": 2619,
      "soci": 2620,
      "Ġpairs": 2621,
      "Ġrepresented": 2622,
      "undred": 2623,
      "Ġcross": 2624,
      "Ġfrequency": 2625,
      "Ġequals": 2626,
      "ĠDiscussion": 2627,
      "Ġpath": 2628,
      "Ġplot": 2629,
      "rabol": 2630,
      "Ġcolumn": 2631,
      "cdots": 2632,
      "Ġ2013": 2633,
      "Use": 2634,
      "Ġremainder": 2635,
      "ubl": 2636,
      "Ġvertices": 2637,
      "imensional": 2638,
      "ored": 2639,
      "loor": 2640,
      "Ġcondition": 2641,
      "Ġminimum": 2642,
      "ĊĠĠĠĠĠĠĠĠĠĠĠ": 2643,
      "ĠSimplify": 2644,
      "Ġaxis": 2645,
      "sheets": 2646,
      "Ġtemperature": 2647,
      "}{(": 2648,
      "Ġnotation": 2649,
      "htt": 2650,
      "ponse": 2651,
      "ody": 2652,
      "aster": 2653,
      "Ġexam": 2654,
      "ritical": 2655,
      "Ġseconds": 2656,
      "dle": 2657,
      "96": 2658,
      "Ġfields": 2659,
      "ĠWrite": 2660,
      "Ġdemonst": 2661,
      "equiv": 2662,
      "Ġdomain": 2663,
      "Ġdiameter": 2664,
      "Ġnecess": 2665,
      "uppose": 2666,
      "Ġstrateg": 2667,
      "ording": 2668,
      "Ġmeaning": 2669,
      "ids": 2670,
      "Ġsubtract": 2671,
      "Ġareas": 2672,
      "46": 2673,
      "iew": 2674,
      "ene": 2675,
      "Ġtrigonometric": 2676,
      "ĠStudents": 2677,
      "Therefore": 2678,
      "Ġcover": 2679,
      "umber": 2680,
      "ness": 2681,
      "ĠStandard": 2682,
      "CM": 2683,
      "ress": 2684,
      "Ġblock": 2685,
      "ask": 2686,
      "Ġcos": 2687,
      "Ġmaterial": 2688,
      "Ġrespect": 2689,
      "ĠPolynomial": 2690,
      "ĠConsider": 2691,
      "limin": 2692,
      "Ġcoefficients": 2693,
      "vation": 2694,
      "Ġstructure": 2695,
      "Ġexists": 2696,
      "ĠQuadratic": 2697,
      "oney": 2698,
      "Ġimpro": 2699,
      "Ġhold": 2700,
      "ĠLear": 2701,
      "ccess": 2702,
      "Ġperimeter": 2703,
      "Ġadj": 2704,
      "Ġ2008": 2705,
      "88": 2706,
      "Ġprogram": 2707,
      "Ġdiscus": 2708,
      "ĠProof": 2709,
      "Ġcongru": 2710,
      "Ġaccu": 2711,
      "42": 2712,
      "ĠApplications": 2713,
      "31": 2714,
      "Ġhypotenuse": 2715,
      "Ġcontains": 2716,
      "sp": 2717,
      "ĠPhysics": 2718,
      "Ġcontext": 2719,
      "Ġel": 2720,
      "Ġregion": 2721,
      "],": 2722,
      "Ġcompare": 2723,
      "ĠExercise": 2724,
      "Ġpi": 2725,
      "cap": 2726,
      "amma": 2727,
      "Ġelectric": 2728,
      "Ġgood": 2729,
      "Ġplan": 2730,
      "ĠEng": 2731,
      "ĠTri": 2732,
      "Ġmill": 2733,
      "Ġ70": 2734,
      "Ġdepend": 2735,
      "plement": 2736,
      "ĠSec": 2737,
      "Div": 2738,
      "ee": 2739,
      "ife": 2740,
      "triangle": 2741,
      "Here": 2742,
      "Ġprac": 2743,
      "ĠFrom": 2744,
      "ox": 2745,
      "iques": 2746,
      "SS": 2747,
      "terns": 2748,
      "Ġdividing": 2749,
      "]\\)": 2750,
      "bit": 2751,
      "Ġanalyz": 2752,
      "Ġsignificant": 2753,
      "Ġdegree": 2754,
      "Ġformulas": 2755,
      "Ġpotential": 2756,
      "ĠMaths": 2757,
      "ĠPost": 2758,
      "Ġpolyg": 2759,
      "ĠRec": 2760,
      "ticle": 2761,
      "cular": 2762,
      "Ġselect": 2763,
      "Cl": 2764,
      "Ġlight": 2765,
      "Ġchanges": 2766,
      "Ġ$(": 2767,
      "Ġphysics": 2768,
      "otient": 2769,
      "Ġ120": 2770,
      "Date": 2771,
      "oy": 2772,
      "'m": 2773,
      "tity": 2774,
      "action": 2775,
      "Ġapplied": 2776,
      "Ġoutput": 2777,
      "\\,": 2778,
      "Ġanswers": 2779,
      "Wh": 2780,
      "ĠOper": 2781,
      "ĠVector": 2782,
      "aracter": 2783,
      "Ġconnect": 2784,
      "Ġshown": 2785,
      "uler": 2786,
      "ĠExpressions": 2787,
      "Ġcode": 2788,
      "ĠVer": 2789,
      "âĢĶ": 2790,
      "Ġprevious": 2791,
      "ĠPri": 2792,
      "ears": 2793,
      "ĠAC": 2794,
      "rigonometry": 2795,
      "ĠRule": 2796,
      "Equ": 2797,
      "bar": 2798,
      "Ġpay": 2799,
      "ĠWith": 2800,
      "54": 2801,
      "These": 2802,
      "Ġill": 2803,
      "mary": 2804,
      "Ġher": 2805,
      "Ġperfect": 2806,
      "Ġft": 2807,
      "els": 2808,
      "alse": 2809,
      "67": 2810,
      ".)": 2811,
      "tead": 2812,
      "Ġdenot": 2813,
      "ĠHomework": 2814,
      "Ġput": 2815,
      "till": 2816,
      "lev": 2817,
      "Ġwhose": 2818,
      "set": 2819,
      "aus": 2820,
      "placement": 2821,
      "egative": 2822,
      "Ġpattern": 2823,
      "Ġexponential": 2824,
      "Ġbeg": 2825,
      "ĠCur": 2826,
      "First": 2827,
      "ption": 2828,
      "ĠConcepts": 2829,
      "Ġmark": 2830,
      "08": 2831,
      "Ġbott": 2832,
      "ynam": 2833,
      "less": 2834,
      "ĠConst": 2835,
      "Ġrespectively": 2836,
      "ĠBut": 2837,
      "ounds": 2838,
      "ĠData": 2839,
      "Ġpaper": 2840,
      "AC": 2841,
      "Ġmagnitude": 2842,
      "Ġshapes": 2843,
      "ĠDivision": 2844,
      "Ġclar": 2845,
      "Ġabsolute": 2846,
      "Ġsit": 2847,
      "Ġlearning": 2848,
      "Ġcyl": 2849,
      "Ġdistrib": 2850,
      "Ġintersect": 2851,
      "Ġ75": 2852,
      "Ġsix": 2853,
      "ĠDivide": 2854,
      "Ġequil": 2855,
      "pret": 2856,
      "ght": 2857,
      "Ġincrease": 2858,
      "Ġ.": 2859,
      "Ġfree": 2860,
      "95": 2861,
      "cription": 2862,
      "ĠDi": 2863,
      "oh": 2864,
      "app": 2865,
      "Ġwidth": 2866,
      "Ġ64": 2867,
      "\\_\\_\\_\\_\\_\\_\\_\\_": 2868,
      "}$.": 2869,
      "ils": 2870,
      "alk": 2871,
      "Ġmakes": 2872,
      "Ġvoltage": 2873,
      "Ġdimensions": 2874,
      "Ġmoving": 2875,
      "ĠChallenge": 2876,
      "Ġable": 2877,
      "Ġprobab": 2878,
      "ĠTime": 2879,
      "Ġdt": 2880,
      "ĠUnit": 2881,
      "lest": 2882,
      "Ġhundred": 2883,
      "Ġmar": 2884,
      "ices": 2885,
      "Ġgrow": 2886,
      "med": 2887,
      "Area": 2888,
      "Ġevent": 2889,
      "valuate": 2890,
      "Ġexplore": 2891,
      "Ġcoordinate": 2892,
      "Ġrules": 2893,
      "arent": 2894,
      "oined": 2895,
      "Ġitself": 2896,
      "allest": 2897,
      "Ġhead": 2898,
      "Ġ31": 2899,
      "}.": 2900,
      "ict": 2901,
      "Ġgraphs": 2902,
      "ĠPercent": 2903,
      "Ġexerc": 2904,
      "comes": 2905,
      "ĠMeas": 2906,
      "ann": 2907,
      "urns": 2908,
      "ideo": 2909,
      "echan": 2910,
      "Ġ\\$": 2911,
      "Ġrelative": 2912,
      "Ġeigen": 2913,
      "ĠNow": 2914,
      "ĠAnd": 2915,
      "Ġacross": 2916,
      "cing": 2917,
      "Ġbal": 2918,
      "Ġsegment": 2919,
      "ĠDefinition": 2920,
      "98": 2921,
      "rete": 2922,
      "ĠTop": 2923,
      "47": 2924,
      "!}": 2925,
      "Ġschool": 2926,
      "sity": 2927,
      "Ġcalculating": 2928,
      "Ġten": 2929,
      "hem": 2930,
      "ling": 2931,
      "ĠKey": 2932,
      "Ġstatis": 2933,
      "Ġtakes": 2934,
      "ems": 2935,
      "}^{\\": 2936,
      "Ġdecimals": 2937,
      "dimensional": 2938,
      "aring": 2939,
      "ĠOct": 2940,
      "Ġ\\)?": 2941,
      "Ġnet": 2942,
      "Ġperson": 2943,
      "ĠJan": 2944,
      "Ġillust": 2945,
      "Ġforces": 2946,
      "Ġbuild": 2947,
      "position": 2948,
      "Ġdiscussion": 2949,
      "known": 2950,
      "ium": 2951,
      "Ġorigin": 2952,
      "ĠTe": 2953,
      "ĠComments": 2954,
      "ues": 2955,
      "ash": 2956,
      "Ġgroups": 2957,
      "ĠFinding": 2958,
      "Ġengineering": 2959,
      "wn": 2960,
      "Ġskills": 2961,
      "member": 2962,
      "owers": 2963,
      "$$\\": 2964,
      "ĠRational": 2965,
      "06": 2966,
      "Ġgoing": 2967,
      "Ġcircum": 2968,
      "Total": 2969,
      "ril": 2970,
      "Ġcircuit": 2971,
      "vanced": 2972,
      "Ġbest": 2973,
      "epsilon": 2974,
      "Ġarc": 2975,
      "ĠExercises": 2976,
      "ĠSection": 2977,
      "Ġdensity": 2978,
      "ĊĠĠĠĠĠ": 2979,
      "Ġrem": 2980,
      "Ġoperation": 2981,
      "Ġpressure": 2982,
      "Ġexponents": 2983,
      "ĠProperties": 2984,
      "havi": 2985,
      "ĠRad": 2986,
      "Ġvisual": 2987,
      "riction": 2988,
      "ĠNote": 2989,
      "Ġstill": 2990,
      "ober": 2991,
      "ires": 2992,
      "57": 2993,
      "ĠRoot": 2994,
      "ats": 2995,
      "ĠStatistics": 2996,
      "Ġderivatives": 2997,
      "It": 2998,
      "Ġscale": 2999,
      "Ġdouble": 3000,
      "Ġpur": 3001,
      "=\\": 3002,
      "ĠOb": 3003,
      "Ġcapac": 3004,
      "Ġpost": 3005,
      "Ġcubic": 3006,
      "Ġintegrals": 3007,
      "Ġpredic": 3008,
      "overline": 3009,
      "Ġir": 3010,
      "ĠVolume": 3011,
      "sh": 3012,
      "rho": 3013,
      "Ġwords": 3014,
      "Ġcards": 3015,
      "Ġsepa": 3016,
      "ches": 3017,
      "wards": 3018,
      "Ġteacher": 3019,
      "ought": 3020,
      "ĠThat": 3021,
      "ĠConvert": 3022,
      "ells": 3023,
      "ĠTotal": 3024,
      "Ġcompute": 3025,
      "Ġremaining": 3026,
      "Ġopen": 3027,
      "Ġinside": 3028,
      "Ġhapp": 3029,
      "Ġcourse": 3030,
      "Ġbinary": 3031,
      "ĠRati": 3032,
      "adril": 3033,
      "ĠÃ": 3034,
      "ĠMean": 3035,
      "rain": 3036,
      "Ġresistance": 3037,
      "Ġbinomial": 3038,
      "Ġkil": 3039,
      "Ġconstruct": 3040,
      "04": 3041,
      "Ġdeta": 3042,
      "Ġcircles": 3043,
      "Ġchoose": 3044,
      "ĠMay": 3045,
      "Ġhaving": 3046,
      "ogn": 3047,
      "sive": 3048,
      "ĠSep": 3049,
      "arts": 3050,
      "Ġparabol": 3051,
      "CF": 3052,
      "Ġsal": 3053,
      "Ġexperim": 3054,
      "Ġimplies": 3055,
      "iled": 3056,
      "\\))": 3057,
      "Ġconversion": 3058,
      "Ġcut": 3059,
      "aced": 3060,
      "ĠĠĠĠĠĠĠĠĠĠĠĠĠ": 3061,
      "Ġsmallest": 3062,
      "rack": 3063,
      "Calculus": 3064,
      "ĠSeries": 3065,
      "Ġintrodu": 3066,
      "Ġhy": 3067,
      "Ġhelps": 3068,
      "Ġ42": 3069,
      "Ġcritical": 3070,
      "ffect": 3071,
      "ended": 3072,
      "Ġet": 3073,
      "ends": 3074,
      "orth": 3075,
      "72": 3076,
      "Ġstarting": 3077,
      "pper": 3078,
      "ĠContent": 3079,
      "allelog": 3080,
      "ĠAfter": 3081,
      "Ġflu": 3082,
      "Ġfam": 3083,
      "Ġmedian": 3084,
      "Ġtypes": 3085,
      "tle": 3086,
      "Ġ\\((-": 3087,
      "Ġbook": 3088,
      "inetic": 3089,
      "rating": 3090,
      "aves": 3091,
      "Ġcreate": 3092,
      "ircular": 3093,
      "Ġann": 3094,
      "ĠCol": 3095,
      "Ġexpected": 3096,
      "Ġanti": 3097,
      "]\\),": 3098,
      "Ġquantity": 3099,
      "aken": 3100,
      "Ġair": 3101,
      "mer": 3102,
      "nswers": 3103,
      "ĠAngle": 3104,
      "ags": 3105,
      "Ġrelation": 3106,
      "Ġlow": 3107,
      "havior": 3108,
      "Ġoutcomes": 3109,
      "ĠReferences": 3110,
      "52": 3111,
      "Ġbi": 3112,
      "Ġmoney": 3113,
      "mid": 3114,
      "DE": 3115,
      "Ġdiagram": 3116,
      "Ġarg": 3117,
      "Ġsimplifies": 3118,
      "Ġincludes": 3119,
      "ĠBe": 3120,
      "Ġ34": 3121,
      "ĠOut": 3122,
      "Ġbre": 3123,
      "Per": 3124,
      "iffic": 3125,
      "Ġarticle": 3126,
      "Ġpolynomials": 3127,
      "ĠABC": 3128,
      "Ġshort": 3129,
      "mathrm": 3130,
      "levant": 3131,
      "Ġroll": 3132,
      "Ġfar": 3133,
      "aching": 3134,
      "Simplify": 3135,
      "IN": 3136,
      "Ġintersection": 3137,
      "vals": 3138,
      "Ġmatrices": 3139,
      "Ġquantities": 3140,
      "Ġuntil": 3141,
      "Ġcharacter": 3142,
      "delta": 3143,
      "ĠBC": 3144,
      "02": 3145,
      "inning": 3146,
      "Ġ37": 3147,
      "ST": 3148,
      "Ġcompound": 3149,
      "Ġyield": 3150,
      "Ġinstance": 3151,
      "ĠPower": 3152,
      "istic": 3153,
      "Ġapproaches": 3154,
      "iversity": 3155,
      "Ġregular": 3156,
      "ĠForum": 3157,
      "oring": 3158,
      "Ġcomponents": 3159,
      "ĠAngles": 3160,
      "Ġcases": 3161,
      "table": 3162,
      "Ġpie": 3163,
      "ke": 3164,
      "netic": 3165,
      "65": 3166,
      "ased": 3167,
      "iti": 3168,
      "ĠÂ": 3169,
      "Ġcongruent": 3170,
      "ermut": 3171,
      "84": 3172,
      "omething": 3173,
      "Ġcharge": 3174,
      "Ġbetter": 3175,
      "MAT": 3176,
      "Ġenc": 3177,
      "hens": 3178,
      "ecti": 3179,
      "85": 3180,
      "Ġground": 3181,
      "enn": 3182,
      "ests": 3183,
      "ĠDraw": 3184,
      "Mathema": 3185,
      "Ġinequalities": 3186,
      "Ġestimate": 3187,
      "ĠEarth": 3188,
      "value": 3189,
      "Ġeduc": 3190,
      "Ġelimin": 3191,
      "Ġvers": 3192,
      "Res": 3193,
      "agon": 3194,
      "Ġtaken": 3195,
      "Algebra": 3196,
      "play": 3197,
      "Ġuses": 3198,
      "uzzle": 3199,
      "Factor": 3200,
      "Ġago": 3201,
      "Ġage": 3202,
      "Ġclosed": 3203,
      "Ġsw": 3204,
      "Ġrelationships": 3205,
      "oles": 3206,
      "Ġexist": 3207,
      "ĠOperations": 3208,
      "Ġmeasures": 3209,
      "Ġsuccess": 3210,
      "ĠLim": 3211,
      "500": 3212,
      "Ġnumerical": 3213,
      "Ġfixed": 3214,
      "Ġnecessary": 3215,
      "Ġeasy": 3216,
      "ĠâĪ": 3217,
      "ailable": 3218,
      "bine": 3219,
      "ood": 3220,
      "Ġstre": 3221,
      "lor": 3222,
      "ctors": 3223,
      "Ġproportional": 3224,
      "*.": 3225,
      "mit": 3226,
      "ĠCalculator": 3227,
      "step": 3228,
      "Ġbottom": 3229,
      "rol": 3230,
      "ots": 3231,
      "Ġdenoted": 3232,
      "Ġ...": 3233,
      "ĠFeb": 3234,
      "Ġinvest": 3235,
      "Ġsever": 3236,
      "Ġcomputer": 3237,
      "Ġhigher": 3238,
      "Ġ49": 3239,
      "Ġconsist": 3240,
      "Ġlab": 3241,
      "ĠDistribution": 3242,
      "Ġpractical": 3243,
      "81": 3244,
      "'ll": 3245,
      "Ġformed": 3246,
      "Ġdescribe": 3247,
      "ĠGener": 3248,
      "ĠReg": 3249,
      "Ġshare": 3250,
      "Ġchildren": 3251,
      "Ġdiagonal": 3252,
      "ucl": 3253,
      "vit": 3254,
      "Ġproviding": 3255,
      "Ġoptim": 3256,
      "Ġallows": 3257,
      "Ġsine": 3258,
      "iform": 3259,
      "Ġincreases": 3260,
      "})^": 3261,
      "Ġpatterns": 3262,
      "77": 3263,
      "Ġstring": 3264,
      "Ġmen": 3265,
      "sume": 3266,
      "Ġadded": 3267,
      "Ġ33": 3268,
      "Ġindu": 3269,
      "atch": 3270,
      "....": 3271,
      "Ġown": 3272,
      "Ġresulting": 3273,
      "rates": 3274,
      "Ġreally": 3275,
      "Ġblue": 3276,
      "co": 3277,
      "uary": 3278,
      "Ġmem": 3279,
      "ecial": 3280,
      "Ġhypothesis": 3281,
      "ready": 3282,
      "ĠComplex": 3283,
      "09": 3284,
      "03": 3285,
      "Ġworking": 3286,
      "Ġdifferentiation": 3287,
      "Ob": 3288,
      "ternative": 3289,
      "eep": 3290,
      "atter": 3291,
      "Ġquotient": 3292,
      "ĠBasic": 3293,
      "Ġwide": 3294,
      "ĠWord": 3295,
      "tig": 3296,
      "ĠInequalities": 3297,
      "alid": 3298,
      "tative": 3299,
      "[\\": 3300,
      "pmod": 3301,
      "vities": 3302,
      "pril": 3303,
      "Ġcompre": 3304,
      "Ġmultiplied": 3305,
      "Ġadditional": 3306,
      "ĠĊĠĠ": 3307,
      "Ġexplanation": 3308,
      "ĠWhich": 3309,
      "Ġcard": 3310,
      "Ġ)": 3311,
      "Ġsolved": 3312,
      "air": 3313,
      "Ġmixed": 3314,
      "Ġmomentum": 3315,
      "Ġidentify": 3316,
      "Stud": 3317,
      "Ġtechniques": 3318,
      "oss": 3319,
      "Ġeffect": 3320,
      "Ġlargest": 3321,
      "Ġbody": 3322,
      "ledge": 3323,
      "Ġgrade": 3324,
      "Ġseveral": 3325,
      "eros": 3326,
      "Ġenti": 3327,
      "\\)?": 3328,
      "mes": 3329,
      "aneous": 3330,
      "Ġtwice": 3331,
      "Ġsomething": 3332,
      "tivities": 3333,
      "Ġ72": 3334,
      "ĠReview": 3335,
      "Ġbehavior": 3336,
      "arest": 3337,
      "Ġarray": 3338,
      "Ġsure": 3339,
      "Ġscience": 3340,
      "Subtrac": 3341,
      "Ġassoci": 3342,
      "ounter": 3343,
      "lu": 3344,
      "ries": 3345,
      "Ġforms": 3346,
      "Ġfinite": 3347,
      "enari": 3348,
      "Ġevaluate": 3349,
      "Ġ\\)-": 3350,
      "Ġdefinite": 3351,
      "Ġevents": 3352,
      "ĠSecond": 3353,
      "07": 3354,
      "Ġapplication": 3355,
      "reat": 3356,
      "Ġrectangular": 3357,
      "values": 3358,
      "Ġdetermined": 3359,
      "izes": 3360,
      "acent": 3361,
      "Ġens": 3362,
      "side": 3363,
      "Ġsubstitution": 3364,
      "Ġtopics": 3365,
      "ĠSimilar": 3366,
      "ĠCircle": 3367,
      "lish": 3368,
      "ĠRelated": 3369,
      "mod": 3370,
      "Ġsitu": 3371,
      "ĠAnswers": 3372,
      "wh": 3373,
      "Ġproportion": 3374,
      "Ġalready": 3375,
      "Ġdirectly": 3376,
      "Ġsymmetry": 3377,
      "igns": 3378,
      "Ġinf": 3379,
      "Ġrefer": 3380,
      "Understanding": 3381,
      "ĠPos": 3382,
      "Ġdistin": 3383,
      "Ġedge": 3384,
      "ĠScience": 3385,
      "|\\": 3386,
      "ock": 3387,
      "ansion": 3388,
      "Ġlower": 3389,
      "Ġunique": 3390,
      "Ġmodels": 3391,
      "Ġgreatest": 3392,
      "43": 3393,
      "ube": 3394,
      "ĠMatrix": 3395,
      "Ġprec": 3396,
      "Ġrecur": 3397,
      "Ġduring": 3398,
      "ĠOver": 3399,
      "cientif": 3400,
      "world": 3401,
      "ĠProduct": 3402,
      "ĠFraction": 3403,
      "ah": 3404,
      "port": 3405,
      "ĠTerm": 3406,
      "ĠWhy": 3407,
      "Ġsphere": 3408,
      "Ġdecreas": 3409,
      "ĠSur": 3410,
      "Ġones": 3411,
      "Ġcomprehens": 3412,
      "}$$": 3413,
      "vestig": 3414,
      "ift": 3415,
      "derivative": 3416,
      "cientific": 3417,
      "ĠNewton": 3418,
      "Ġgot": 3419,
      "ĠSequ": 3420,
      "ĠSystems": 3421,
      "Ġtree": 3422,
      "Ġsaid": 3423,
      "ĠĠĠĠĠĠĠĠĠĠ": 3424,
      "Ġetc": 3425,
      "Ġ56": 3426,
      "ĠAb": 3427,
      "Ġleg": 3428,
      "'re": 3429,
      "Ġmiddle": 3430,
      "Ġonce": 3431,
      "Ġ55": 3432,
      "Ġfall": 3433,
      ",\"": 3434,
      "Ġbx": 3435,
      "ĠMore": 3436,
      "Ġexpress": 3437,
      "41": 3438,
      "}(\\": 3439,
      "ov": 3440,
      "Ġratios": 3441,
      "89": 3442,
      "|----------------": 3443,
      "ners": 3444,
      "ĠSubtract": 3445,
      "ĠConversion": 3446,
      "ĠLa": 3447,
      "1000": 3448,
      "divid": 3449,
      "Ġlimits": 3450,
      "Ġavailable": 3451,
      "Ġreci": 3452,
      "ousand": 3453,
      "ished": 3454,
      "Ġscalar": 3455,
      "ĠJun": 3456,
      "Ġheat": 3457,
      "nce": 3458,
      "book": 3459,
      "ruary": 3460,
      "lege": 3461,
      "cup": 3462,
      "OR": 3463,
      "Ġrequire": 3464,
      "ability": 3465,
      "AS": 3466,
      "Ġser": 3467,
      "Ġspecial": 3468,
      "entim": 3469,
      "rd": 3470,
      "Ġimage": 3471,
      "floor": 3472,
      "ĠLearning": 3473,
      "Ġfigures": 3474,
      "py": 3475,
      "Ġreasoning": 3476,
      "aps": 3477,
      "Ġimpl": 3478,
      "http": 3479,
      "ĠPoints": 3480,
      "ĠAdditional": 3481,
      "________________________________": 3482,
      "linear": 3483,
      "finity": 3484,
      "order": 3485,
      "Ġindivid": 3486,
      "Ġconfidence": 3487,
      "ieve": 3488,
      "ending": 3489,
      "Ġmeasurement": 3490,
      "allelogram": 3491,
      "ĠPoint": 3492,
      "come": 3493,
      "ĠOp": 3494,
      "llip": 3495,
      "\",": 3496,
      "istor": 3497,
      "Ġobtained": 3498,
      "Ġ\\))": 3499,
      "edu": 3500,
      "Ġ500": 3501,
      "ĠDecimals": 3502,
      "'ve": 3503,
      "pto": 3504,
      "Ġ300": 3505,
      "ĠShe": 3506,
      "Ġparabola": 3507,
      "astic": 3508,
      "pez": 3509,
      "ecutive": 3510,
      "ĠCheck": 3511,
      "ĠCount": 3512,
      "ordinate": 3513,
      "Ġ($": 3514,
      "Ġparticularly": 3515,
      "Ġappropri": 3516,
      "ouse": 3517,
      "mag": 3518,
      "Ġcombinations": 3519,
      "ĠSol": 3520,
      "Ġdrawn": 3521,
      "199": 3522,
      "ovember": 3523,
      "oose": 3524,
      "Ġdu": 3525,
      "Ġwave": 3526,
      "Ġsimply": 3527,
      "part": 3528,
      "Ġformat": 3529,
      "Can": 3530,
      "Ġcylinder": 3531,
      "Graph": 3532,
      "Ġsufficient": 3533,
      "Ġdefine": 3534,
      "cy": 3535,
      "eces": 3536,
      "Ġcosine": 3537,
      "Ġgas": 3538,
      "ĠThanks": 3539,
      "ĠSe": 3540,
      "Ġplaces": 3541,
      "acci": 3542,
      "ĠJul": 3543,
      "ĠTriangles": 3544,
      "angu": 3545,
      "Ġcounting": 3546,
      "ĠSubstitute": 3547,
      "present": 3548,
      "Gra": 3549,
      "Ġrece": 3550,
      "uted": 3551,
      "Ġrepresentation": 3552,
      "ĠMeasure": 3553,
      "Ġweek": 3554,
      "Ġgravity": 3555,
      "Ġrequires": 3556,
      "Ġsolid": 3557,
      "Ġ==": 3558,
      "onacci": 3559,
      "Ġcall": 3560,
      "Ġworks": 3561,
      "conom": 3562,
      "relation": 3563,
      "Ġpolygon": 3564,
      "EE": 3565,
      "ĠSubtraction": 3566,
      "la": 3567,
      "Int": 3568,
      "Ġdoc": 3569,
      "rational": 3570,
      "Ġtransformation": 3571,
      "ĠAdding": 3572,
      "ĠEle": 3573,
      "Ġtaking": 3574,
      "stim": 3575,
      "Ġ150": 3576,
      "Ġfew": 3577,
      "Ġentire": 3578,
      "Ġ38": 3579,
      "jects": 3580,
      "ĠSimplifying": 3581,
      "Ġsense": 3582,
      "ĠUniversity": 3583,
      "Ġpiece": 3584,
      "Ġnearest": 3585,
      "Ġensure": 3586,
      "Ġ39": 3587,
      "let": 3588,
      "Ġstatistics": 3589,
      "}}\\": 3590,
      "Ġunknown": 3591,
      "gan": 3592,
      "gamma": 3593,
      "ĠSome": 3594,
      "ibonacci": 3595,
      "User": 3596,
      "Ġdesigned": 3597,
      "tember": 3598,
      "ĠMotion": 3599,
      "Ġexponent": 3600,
      "ĠDistance": 3601,
      "aj": 3602,
      "Ġefficient": 3603,
      "Ġfit": 3604,
      "sub": 3605,
      "bles": 3606,
      "active": 3607,
      "ĠCent": 3608,
      "Ġpage": 3609,
      "Ġaim": 3610,
      "titude": 3611,
      "ĠImp": 3612,
      "Ġprobabilities": 3613,
      "rated": 3614,
      "IC": 3615,
      "Ġvariance": 3616,
      "Ġconsecutive": 3617,
      "ĠEnergy": 3618,
      "ĠDifferential": 3619,
      "Number": 3620,
      "Ġ2007": 3621,
      "land": 3622,
      "%.": 3623,
      "Ġcomponent": 3624,
      "ĠProperty": 3625,
      "]{": 3626,
      "Ġedges": 3627,
      "Ġidea": 3628,
      "58": 3629,
      "One": 3630,
      "Ġrev": 3631,
      "ĠExt": 3632,
      "rangle": 3633,
      "oard": 3634,
      "mis": 3635,
      "Ġmeasured": 3636,
      "Ġpartial": 3637,
      "Ġconfir": 3638,
      "ĠThree": 3639,
      "ĠLines": 3640,
      "LE": 3641,
      "ĠProve": 3642,
      "Sh": 3643,
      "ĠAug": 3644,
      "Ġ//": 3645,
      "Ġfocuses": 3646,
      "Ġaccurate": 3647,
      "Ġpict": 3648,
      "Un": 3649,
      "ĠTheory": 3650,
      "Disc": 3651,
      "Line": 3652,
      "Ġquick": 3653,
      "Ġdenominators": 3654,
      "Ġbit": 3655,
      "Ġpounds": 3656,
      "Ġresources": 3657,
      "Ġview": 3658,
      "ĠEucl": 3659,
      "Ġrotation": 3660,
      "68": 3661,
      "ĠSc": 3662,
      "Ġquadril": 3663,
      "hest": 3664,
      "Ġ2014": 3665,
      "que": 3666,
      "hand": 3667,
      "Ġasym": 3668,
      "Pl": 3669,
      "man": 3670,
      "Ġreview": 3671,
      "ipp": 3672,
      "ĠLCM": 3673,
      "ators": 3674,
      "Ġkinetic": 3675,
      "otes": 3676,
      "ĠSchool": 3677,
      "Ġscenari": 3678,
      "ĠOrder": 3679,
      "itle": 3680,
      ")]": 3681,
      "Ġbasis": 3682,
      "Ġfull": 3683,
      "heses": 3684,
      "Ġaffect": 3685,
      "Ġcircular": 3686,
      "II": 3687,
      "Ġcubes": 3688,
      "mand": 3689,
      "ĠEuler": 3690,
      "Ġpm": 3691,
      "Ġfriction": 3692,
      "Ġapplying": 3693,
      "Ġpieces": 3694,
      "cle": 3695,
      "Ġbig": 3696,
      "Ġangular": 3697,
      "Ġfram": 3698,
      "Ġ54": 3699,
      "Ġplus": 3700,
      "Ġmoves": 3701,
      "ibri": 3702,
      "Ġimag": 3703,
      "rick": 3704,
      "ĠShow": 3705,
      "Determine": 3706,
      "ython": 3707,
      "Ġactivity": 3708,
      "Ġindicates": 3709,
      "ĠCor": 3710,
      "Ġturn": 3711,
      "Ġdescribed": 3712,
      "jecti": 3713,
      "thing": 3714,
      "Ġdistinct": 3715,
      "vitational": 3716,
      "yl": 3717,
      "Ġthings": 3718,
      "alleng": 3719,
      "ĠTrigonometric": 3720,
      "zero": 3721,
      "Ġstatistical": 3722,
      "ĠFig": 3723,
      "ĠTable": 3724,
      "Ġgrid": 3725,
      "Ġtoo": 3726,
      "Ġdisplacement": 3727,
      "Ġappropriate": 3728,
      "ality": 3729,
      "oop": 3730,
      "utorial": 3731,
      "Ġclose": 3732,
      "ited": 3733,
      "Ġtens": 3734,
      "Ġcircumference": 3735,
      "180": 3736,
      "Ġstatements": 3737,
      "ĠGu": 3738,
      "Ġderived": 3739,
      "Ġold": 3740,
      "Conclusion": 3741,
      "yram": 3742,
      "ĠLength": 3743,
      "63": 3744,
      "time": 3745,
      "Ġdrawing": 3746,
      "ĠMultiplying": 3747,
      "Ġpowers": 3748,
      "Posts": 3749,
      "Ġbel": 3750,
      "Ġarrange": 3751,
      "Ġdiffic": 3752,
      "Ġprofit": 3753,
      "Ġdoesn": 3754,
      "Two": 3755,
      "Ġasked": 3756,
      "Ġantiderivative": 3757,
      "vent": 3758,
      "ĠLast": 3759,
      "ety": 3760,
      "59": 3761,
      "ĠElect": 3762,
      "Ġdocument": 3763,
      "Ġvalid": 3764,
      "bility": 3765,
      "Ġballs": 3766,
      "Ġscore": 3767,
      "rag": 3768,
      "tician": 3769,
      "plies": 3770,
      "Ġdro": 3771,
      "Ġholds": 3772,
      "cot": 3773,
      "fficiency": 3774,
      "Ġknowledge": 3775,
      "ison": 3776,
      "ĠâĢĺ": 3777,
      "Ġbar": 3778,
      "Ġrad": 3779,
      "Inter": 3780,
      "ĠMon": 3781,
      "Ġinterpret": 3782,
      "Ġenh": 3783,
      "Ġincreasing": 3784,
      "ĠPrime": 3785,
      "ibrium": 3786,
      "Ġgrowth": 3787,
      ")}{\\": 3788,
      "ware": 3789,
      "Ver": 3790,
      "Ġleading": 3791,
      "ceed": 3792,
      ".*": 3793,
      "Ġmissing": 3794,
      "Cont": 3795,
      "www": 3796,
      "Ġcomprehensive": 3797,
      "ĠArithmetic": 3798,
      "oms": 3799,
      "ĠCalculating": 3800,
      "ĠStart": 3801,
      "ds": 3802,
      "Ġaway": 3803,
      "omb": 3804,
      "pal": 3805,
      "Ġgetting": 3806,
      "ĠSteps": 3807,
      "ball": 3808,
      "ĠAP": 3809,
      "Ġach": 3810,
      "Is": 3811,
      "ĠExponents": 3812,
      "Ġfocusing": 3813,
      "Ar": 3814,
      "Proof": 3815,
      "ĠReal": 3816,
      "Ġtask": 3817,
      "Ġdri": 3818,
      "Ġcombination": 3819,
      "ĠLogarithm": 3820,
      "Ġmechan": 3821,
      "Â²": 3822,
      "Ġname": 3823,
      "ĠCre": 3824,
      "Ġcome": 3825,
      "Ġprinciple": 3826,
      "Substituting": 3827,
      "Ġconsidered": 3828,
      "ĠVariables": 3829,
      "au": 3830,
      "omen": 3831,
      "medi": 3832,
      "Ġcoll": 3833,
      "ĠHence": 3834,
      "ĠNotes": 3835,
      "ĠSte": 3836,
      "mong": 3837,
      "Appl": 3838,
      "ĠJanuary": 3839,
      "python": 3840,
      "Ġsatisfy": 3841,
      "âĢĵ": 3842,
      "perbol": 3843,
      "Ġprinciples": 3844,
      "oretical": 3845,
      "ths": 3846,
      "Convert": 3847,
      "Integ": 3848,
      "ĠBet": 3849,
      "tif": 3850,
      "max": 3851,
      "oration": 3852,
      "Ġfoot": 3853,
      "Suppose": 3854,
      "Ġtables": 3855,
      "ega": 3856,
      "Ġrows": 3857,
      "Ġexperi": 3858,
      "uture": 3859,
      "Ġnote": 3860,
      "Ġkeep": 3861,
      "Ġaccount": 3862,
      "ĠTechn": 3863,
      "Ġinstead": 3864,
      "Ġ65": 3865,
      "Ġcolor": 3866,
      "Ġinvolve": 3867,
      "ĠCar": 3868,
      "langle": 3869,
      "Ġdoll": 3870,
      "odes": 3871,
      "Ġ199": 3872,
      "Ġreach": 3873,
      "Ġsums": 3874,
      "icit": 3875,
      "AN": 3876,
      "Ġdivisor": 3877,
      "ĠAppro": 3878,
      "Des": 3879,
      "79": 3880,
      "mar": 3881,
      "ĠGraphs": 3882,
      "Ġ44": 3883,
      "ĠYour": 3884,
      "EN": 3885,
      "Ġthousand": 3886,
      "ions": 3887,
      "Ġintervals": 3888,
      "ĠMin": 3889,
      "\\(\\": 3890,
      "Ġtools": 3891,
      "Ġsubtracting": 3892,
      "Ġsem": 3893,
      "ĠGraphing": 3894,
      "Ġrecipro": 3895,
      "ĠAp": 3896,
      "Ġassume": 3897,
      "Ġ400": 3898,
      "Ġ?": 3899,
      "osen": 3900,
      "Ġletters": 3901,
      "ently": 3902,
      "Ġmanip": 3903,
      "\\)-": 3904,
      "ale": 3905,
      "ounts": 3906,
      "Ġwall": 3907,
      "ĠExplain": 3908,
      "Ġ52": 3909,
      "125": 3910,
      "iss": 3911,
      "Ġsupport": 3912,
      "cember": 3913,
      "ĠSk": 3914,
      "mentary": 3915,
      "Ġrew": 3916,
      "à¥": 3917,
      "Where": 3918,
      "Ġgoes": 3919,
      "Ġload": 3920,
      "Ġzeros": 3921,
      "Ġuniform": 3922,
      "Ġtransl": 3923,
      "At": 3924,
      "irl": 3925,
      "ulum": 3926,
      "Ġvideo": 3927,
      "Ġexpansion": 3928,
      "ĠFibonacci": 3929,
      "nes": 3930,
      "def": 3931,
      "Ġsequences": 3932,
      "ixt": 3933,
      "Ġtransformations": 3934,
      "Ġconsists": 3935,
      "Ġexpand": 3936,
      "Ġmode": 3937,
      "Ġfil": 3938,
      "ara": 3939,
      "Ġmultiples": 3940,
      "Ġbran": 3941,
      "Ġbreak": 3942,
      "''": 3943,
      "ump": 3944,
      "ĠCombin": 3945,
      "ĠRepresent": 3946,
      "Ġ\\):**": 3947,
      "ĠAss": 3948,
      "ĠMarch": 3949,
      "Then": 3950,
      "Ġrese": 3951,
      "mun": 3952,
      "Ġsugg": 3953,
      "Correct": 3954,
      "ĠÃĹ": 3955,
      "Ġidentif": 3956,
      "AL": 3957,
      "Ġfalse": 3958,
      "Ġtr": 3959,
      "ptions": 3960,
      "pose": 3961,
      "Ġdeal": 3962,
      "vari": 3963,
      "Ġeasier": 3964,
      "itor": 3965,
      "ĠIdentify": 3966,
      "ĠOctober": 3967,
      "Ġmatch": 3968,
      "solving": 3969,
      "ĠModel": 3970,
      "Simplifying": 3971,
      "Ġcone": 3972,
      "ĠPosted": 3973,
      "ĠRatio": 3974,
      "ĠDeriv": 3975,
      "AR": 3976,
      "tau": 3977,
      "ĠDifferenti": 3978,
      "Ġpris": 3979,
      "Ġconsidering": 3980,
      "mega": 3981,
      "ĠPolynomials": 3982,
      "Ġassign": 3983,
      "rical": 3984,
      "Ġlooking": 3985,
      "ĠAlgorithm": 3986,
      "ĠAlgebraic": 3987,
      "ĠRead": 3988,
      "Ġfactorization": 3989,
      "Ġworld": 3990,
      "Ġexercises": 3991,
      "rong": 3992,
      "Ġcentim": 3993,
      "Ġsimplified": 3994,
      "ĠSym": 3995,
      "Ġpermut": 3996,
      "53": 3997,
      "Author": 3998,
      "celes": 3999,
      "ract": 4000,
      "Ġneeds": 4001,
      "Ġà¤": 4002,
      "()": 4003,
      "âĪ": 4004,
      "print": 4005,
      "uration": 4006,
      "Ġ%": 4007,
      "ĠExponential": 4008,
      "])": 4009,
      "big": 4010,
      "Set": 4011,
      "Ġsymbols": 4012,
      "ched": 4013,
      "osceles": 4014,
      "iving": 4015,
      "Ġcontra": 4016,
      "}$,": 4017,
      "ĠIntegral": 4018,
      "}[": 4019,
      "angled": 4020,
      "cases": 4021,
      "Ġindex": 4022,
      "ĠApril": 4023,
      "Ġgain": 4024,
      "Ġstrategies": 4025,
      "ĠMat": 4026,
      "ĠĠĠĠĠĠĠĠĠĠĠ": 4027,
      "Ġkind": 4028,
      "Objective": 4029,
      "ĠExcel": 4030,
      "Ġparticle": 4031,
      "ĠMed": 4032,
      "Ġlot": 4033,
      "ĠIns": 4034,
      "Ġremains": 4035,
      "|----": 4036,
      "Ġmeet": 4037,
      "Ġiter": 4038,
      "Ġclos": 4039,
      "Ġparent": 4040,
      "Ġparallelogram": 4041,
      "rors": 4042,
      "Ġaccording": 4043,
      "Ġenough": 4044,
      "ĠMAT": 4045,
      "ĠAN": 4046,
      "ĠSlope": 4047,
      "Multiply": 4048,
      "Ġ99": 4049,
      "cribed": 4050,
      "Ġconnected": 4051,
      "BC": 4052,
      "Ġconverg": 4053,
      "Ġcolumns": 4054,
      "Ġworksheets": 4055,
      "ĠRate": 4056,
      "ĠPh": 4057,
      "Differ": 4058,
      "Ġrepeated": 4059,
      "ĠInverse": 4060,
      "elling": 4061,
      "Ġworksheet": 4062,
      "&=": 4063,
      "Ġactually": 4064,
      "Ġhighl": 4065,
      "Ġproducts": 4066,
      "ĠMar": 4067,
      "Ġapproximation": 4068,
      "Ġcorrectly": 4069,
      "ION": 4070,
      "ĠConver": 4071,
      "ĠForce": 4072,
      "Ġdynam": 4073,
      "Sum": 4074,
      "Ġoccurs": 4075,
      "Ġ95": 4076,
      "Ġcare": 4077,
      "ulate": 4078,
      "Ġgraphing": 4079,
      "ital": 4080,
      "Ġcentral": 4081,
      "ĠDecimal": 4082,
      "ĠNe": 4083,
      "Ġcovers": 4084,
      "pling": 4085,
      "sequ": 4086,
      "Ġ\\(|": 4087,
      "ĠCD": 4088,
      "ohn": 4089,
      "ĠFebruary": 4090,
      "ĠMag": 4091,
      "Ġ47": 4092,
      "Ġlittle": 4093,
      "pezoid": 4094,
      "120": 4095,
      "org": 4096,
      "servation": 4097,
      "Ġinfinity": 4098,
      "51": 4099,
      "Omega": 4100,
      "Ġcoins": 4101,
      "ĠState": 4102,
      "Ġchain": 4103,
      "eloc": 4104,
      "Id": 4105,
      "ĠTopics": 4106,
      "Ġchosen": 4107,
      "Ġcurves": 4108,
      "Ġamong": 4109,
      "Ġmm": 4110,
      "elocity": 4111,
      "Ġelse": 4112,
      "ĠSample": 4113,
      "ĠNovember": 4114,
      "Ġrepresenting": 4115,
      "points": 4116,
      "Ġbus": 4117,
      "ĠĠĠĠĠĠĠĠĠĠĠĠ": 4118,
      "back": 4119,
      "Ġpick": 4120,
      "Ġplease": 4121,
      "uits": 4122,
      "ĠMan": 4123,
      "Ġreading": 4124,
      "ĠMem": 4125,
      "Ġmonths": 4126,
      "Ġ360": 4127,
      "IT": 4128,
      "ĠĠĠĠĠĠĠĠĠĠĠĠĠĠĠĠĠĠĠĠĠĠĠĠĠĠĠĠĠĠĠĠ": 4129,
      "tically": 4130,
      "Ġregression": 4131,
      "Ġdistances": 4132,
      "ĠRoots": 4133,
      "anguage": 4134,
      "69": 4135,
      "Ġactual": 4136,
      "olate": 4137,
      "Ġchance": 4138,
      "etric": 4139,
      "ĠFin": 4140,
      "Ġcontaining": 4141,
      "',": 4142,
      "ĠFactoring": 4143,
      "ĠInterest": 4144,
      "uck": 4145,
      "No": 4146,
      "Ġ\\(\\{": 4147,
      "Ġphys": 4148,
      "duc": 4149,
      "riting": 4150,
      "ley": 4151,
      "sim": 4152,
      "Ġmeasurements": 4153,
      "Ġteam": 4154,
      "Ġeight": 4155,
      "ĠTransform": 4156,
      "ĠIts": 4157,
      "Ġwrong": 4158,
      "Ġdoing": 4159,
      "like": 4160,
      "tition": 4161,
      "Students": 4162,
      "Ġfactoring": 4163,
      "ERT": 4164,
      "izz": 4165,
      "ĠWorksheet": 4166,
      "ĠApproach": 4167,
      "ĠĊĠ": 4168,
      "ĠMain": 4169,
      "urs": 4170,
      "Ġordered": 4171,
      "ĠTrigonometry": 4172,
      "ĠNumer": 4173,
      "Ġinterior": 4174,
      "Ġwriting": 4175,
      "Sim": 4176,
      ":*": 4177,
      "Ġchalleng": 4178,
      "ĠOther": 4179,
      "paring": 4180,
      "Ġpubl": 4181,
      "ĠSpeed": 4182,
      "which": 4183,
      "Ġrates": 4184,
      "inue": 4185,
      "iness": 4186,
      "Ġ2015": 4187,
      "clude": 4188,
      "osing": 4189,
      "Ġshad": 4190,
      "87": 4191,
      "Divide": 4192,
      "ĠExam": 4193,
      "Ġhighest": 4194,
      "Ġthus": 4195,
      "Ġdifferences": 4196,
      "Le": 4197,
      "ĠGeneral": 4198,
      "pand": 4199,
      "Ġappears": 4200,
      "ope": 4201,
      "lean": 4202,
      "Ġcell": 4203,
      "lex": 4204,
      "Ġellip": 4205,
      "be": 4206,
      "anations": 4207,
      "ibility": 4208,
      "Ġsubstitute": 4209,
      "62": 4210,
      "Ġlogic": 4211,
      "Ġsimplifying": 4212,
      "ĠEstim": 4213,
      "Ġupper": 4214,
      "ĠMax": 4215,
      "Ġpolar": 4216,
      "arter": 4217,
      "ĠFactors": 4218,
      "fined": 4219,
      "Ġsatisfies": 4220,
      "Ġnature": 4221,
      "Time": 4222,
      "ĠAny": 4223,
      "Ġfri": 4224,
      "Ġadjacent": 4225,
      "Ġminute": 4226,
      "Ġexperiment": 4227,
      "Rel": 4228,
      "ĠSeptember": 4229,
      "ius": 4230,
      ")$.": 4231,
      "vice": 4232,
      "esian": 4233,
      "ĠComput": 4234,
      "plit": 4235,
      "Ġtherefore": 4236,
      "Te": 4237,
      "ĠDerivative": 4238,
      "Ġ```": 4239,
      "Ġdef": 4240,
      "Ġcharg": 4241,
      "Ġfill": 4242,
      "Ġthinking": 4243,
      "Ġ43": 4244,
      "atures": 4245,
      "itially": 4246,
      "racy": 4247,
      "ĠDen": 4248,
      "ĠSuppose": 4249,
      "ined": 4250,
      "______": 4251,
      "ĠIdenti": 4252,
      ")=": 4253,
      "ibra": 4254,
      "ĠInc": 4255,
      "Ġtor": 4256,
      "Ġnever": 4257,
      "ĠPropor": 4258,
      "Ġitems": 4259,
      "ĠYear": 4260,
      "rier": 4261,
      "achine": 4262,
      "Ġemp": 4263,
      "Ġ2016": 4264,
      "Ġthought": 4265,
      "Joined": 4266,
      "AP": 4267,
      "}_{": 4268,
      "Ġgravitational": 4269,
      "Ġdetermining": 4270,
      "Ġsource": 4271,
      "ĠRect": 4272,
      "reen": 4273,
      "Comments": 4274,
      "Ġremember": 4275,
      "ategor": 4276,
      "ili": 4277,
      "Ġequilateral": 4278,
      "Ġreference": 4279,
      "Defin": 4280,
      "hemist": 4281,
      "Me": 4282,
      "Ġrecogn": 4283,
      "Ġparameters": 4284,
      "egree": 4285,
      "Ġcou": 4286,
      "ensity": 4287,
      "Ġsent": 4288,
      "rad": 4289,
      "Ġdivides": 4290,
      "tact": 4291,
      "ĠDividing": 4292,
      "AD": 4293,
      "Ġothers": 4294,
      "arc": 4295,
      "Ġ63": 4296,
      "ĠFormulas": 4297,
      "Ġlife": 4298,
      "Ġdice": 4299,
      "Ġeasily": 4300,
      "Ġwind": 4301,
      "itch": 4302,
      "ructions": 4303,
      "Ġmagnetic": 4304,
      "ĠGMAT": 4305,
      "++": 4306,
      "ĠAcc": 4307,
      "Ġconstants": 4308,
      "Ġder": 4309,
      "mathcal": 4310,
      "\\\\": 4311,
      "etch": 4312,
      "Ġsug": 4313,
      "ĠWorksheets": 4314,
      "Ġpowerful": 4315,
      "load": 4316,
      "Thanks": 4317,
      "ĠÎ": 4318,
      "âĢ¦": 4319,
      "bl": 4320,
      "Ġmatter": 4321,
      "}]": 4322,
      "Ġstand": 4323,
      "Ġdel": 4324,
      "ĠAlso": 4325,
      "ĠEnglish": 4326,
      "SA": 4327,
      "ger": 4328,
      "ĠRight": 4329,
      "ecause": 4330,
      "ised": 4331,
      "ĠSu": 4332,
      "Ġnull": 4333,
      "pth": 4334,
      "Ġquadrilateral": 4335,
      "Ġfaces": 4336,
      "\\;": 4337,
      "ĠGroup": 4338,
      "Ġnode": 4339,
      "Linear": 4340,
      "hemistry": 4341,
      "Ġusually": 4342,
      "Ġ41": 4343,
      "Ġgrams": 4344,
      "fit": 4345,
      "earch": 4346,
      "Ġscientific": 4347,
      "arget": 4348,
      "ĠSimple": 4349,
      "inks": 4350,
      "On": 4351,
      "Ġsays": 4352,
      "Ġactivities": 4353,
      "Ġspring": 4354,
      "Probability": 4355,
      "Ġdie": 4356,
      "Ġmodul": 4357,
      "Ġgames": 4358,
      "Ġidentities": 4359,
      "Ġlikely": 4360,
      "Ġparameter": 4361,
      "ĊĠĠĠĠĠĠ": 4362,
      "`.": 4363,
      "ĠUp": 4364,
      "Ġsort": 4365,
      "acing": 4366,
      "ĠOf": 4367,
      "Equation": 4368,
      "Ġhex": 4369,
      "Ġmathematician": 4370,
      "OT": 4371,
      "Ġpossi": 4372,
      "Ġla": 4373,
      "Ġface": 4374,
      "rans": 4375,
      "Ġadvanced": 4376,
      "ĠAm": 4377,
      "ĠSurface": 4378,
      "Ġ\\(-\\": 4379,
      "Ġ81": 4380,
      "aim": 4381,
      "\\(^": 4382,
      "Ġmidpoint": 4383,
      "Ġtypically": 4384,
      "tor": 4385,
      "Ġdepends": 4386,
      "CERT": 4387,
      "ĠRound": 4388,
      "Ġprog": 4389,
      "ĠDiag": 4390,
      "Ġtrain": 4391,
      "ĠCode": 4392,
      "Ġplaced": 4393,
      "Ġguess": 4394,
      "RE": 4395,
      "Ġthing": 4396,
      "Ġgall": 4397,
      ")/": 4398,
      "Ġbalance": 4399,
      "Ġcand": 4400,
      "Ġrather": 4401,
      "400": 4402,
      "io": 4403,
      "Addition": 4404,
      "Ġgreen": 4405,
      "Ġhard": 4406,
      "ograms": 4407,
      "ampling": 4408,
      "Ġclarity": 4409,
      "Ġdifferentiable": 4410,
      "Hence": 4411,
      "New": 4412,
      "ĠPlace": 4413,
      "bal": 4414,
      "Ġseparate": 4415,
      "(-\\": 4416,
      ")**:": 4417,
      "pecial": 4418,
      "Ġproduce": 4419,
      "ĠAssume": 4420,
      "ĠStra": 4421,
      "Ġindividual": 4422,
      "Ġcollection": 4423,
      "ĠBetween": 4424,
      "Ġtests": 4425,
      "Ġspaces": 4426,
      "ĠOverview": 4427,
      "Ġapproximate": 4428,
      "Ġselected": 4429,
      "Ġ2017": 4430,
      "83": 4431,
      "cd": 4432,
      "dient": 4433,
      "Ġirrational": 4434,
      "press": 4435,
      "Ġchoice": 4436,
      "Ġgirl": 4437,
      "nal": 4438,
      "ĠGo": 4439,
      "ĠEr": 4440,
      "Ġonline": 4441,
      "ĠChange": 4442,
      "Ġinteresting": 4443,
      "ections": 4444,
      "Ġpasses": 4445,
      "Ġreciprocal": 4446,
      "Ġrepl": 4447,
      "Ġfuture": 4448,
      "most": 4449,
      "ĠPat": 4450,
      "ĠMass": 4451,
      "\".": 4452,
      "86": 4453,
      "Ġanalyze": 4454,
      "Ġord": 4455,
      "!!": 4456,
      "Ġvs": 4457,
      "Ġcosts": 4458,
      "CC": 4459,
      "Ġplayer": 4460,
      "Ġtheoretical": 4461,
      "yramid": 4462,
      "Ġsubject": 4463,
      "Ġeconom": 4464,
      "Ġtell": 4465,
      "yle": 4466,
      "Ġlies": 4467,
      "Ġequilibrium": 4468,
      "Ġminim": 4469,
      "ED": 4470,
      "pare": 4471,
      "ather": 4472,
      "Ġwhite": 4473,
      "Ġdot": 4474,
      "Ġlink": 4475,
      "ĠNon": 4476,
      "ĠEvaluate": 4477,
      "Ġensuring": 4478,
      "Ġpack": 4479,
      "rimin": 4480,
      "ested": 4481,
      "Ġdetailed": 4482,
      "des": 4483,
      "enth": 4484,
      "armon": 4485,
      "Mathematical": 4486,
      "ĠAD": 4487,
      "ĠNotation": 4488,
      "Ġincorrect": 4489,
      "ĠResources": 4490,
      "ĠDire": 4491,
      "(\"": 4492,
      "Ġblack": 4493,
      "Ġincluded": 4494,
      "ustom": 4495,
      "bers": 4496,
      "Ġgets": 4497,
      "ĠPlan": 4498,
      "mm": 4499,
      "ĠCos": 4500,
      "Ġletter": 4501,
      "amp": 4502,
      "Ġcontrol": 4503,
      "Ġdy": 4504,
      "lab": 4505,
      "%,": 4506,
      "Ã©": 4507,
      "Ġdeterminant": 4508,
      "Ġinsights": 4509,
      "Ġ46": 4510,
      "Ġradians": 4511,
      "73": 4512,
      "Ġargument": 4513,
      "ĠSquares": 4514,
      "Ang": 4515,
      "Ġspecified": 4516,
      "Ġlowest": 4517,
      "Ġthrow": 4518,
      "][": 4519,
      "aving": 4520,
      "onym": 4521,
      "Ġprimes": 4522,
      "Ġdiagon": 4523,
      "Ġmulti": 4524,
      "Ġclock": 4525,
      "erti": 4526,
      "Pre": 4527,
      "^{(": 4528,
      "ij": 4529,
      "Ġimplement": 4530,
      "Ġreaction": 4531,
      "ĠNegative": 4532,
      "Ġregard": 4533,
      "Ġimportance": 4534,
      "}}}": 4535,
      "Ġremo": 4536,
      "phas": 4537,
      "mat": 4538,
      "}}\\)": 4539,
      "Ġproject": 4540,
      "Ġimprove": 4541,
      "Ġbuilding": 4542,
      "mission": 4543,
      "Ġtrying": 4544,
      "Ġappear": 4545,
      "Ġtechnique": 4546,
      "Ġtank": 4547,
      "Ġbecome": 4548,
      "ossible": 4549,
      "Work": 4550,
      "Ġxy": 4551,
      "ites": 4552,
      "Ġverify": 4553,
      "Ġprint": 4554,
      "Write": 4555,
      "ĠGeometric": 4556,
      "ĠDis": 4557,
      "ĠDecember": 4558,
      "ĠSubtracting": 4559,
      "jug": 4560,
      "?\"": 4561,
      "ĠDifference": 4562,
      "Ġresponse": 4563,
      "ĠIntegers": 4564,
      "Ġexplanations": 4565,
      "ftware": 4566,
      "race": 4567,
      "Ġguide": 4568,
      "king": 4569,
      "----------------": 4570,
      "`,": 4571,
      "ĠBase": 4572,
      "ĠPres": 4573,
      "\\_\\_\\_\\_\\_\\_\\_\\_\\_\\_\\_\\_\\_\\_\\_\\_": 4574,
      "Ġalgorithms": 4575,
      "Ġlogical": 4576,
      "Ġreflect": 4577,
      "vations": 4578,
      "Ġmap": 4579,
      "Ġfluid": 4580,
      "Ġconcent": 4581,
      "Ġcomes": 4582,
      "onday": 4583,
      "Ġwin": 4584,
      "ĠBoth": 4585,
      "Ph": 4586,
      "ava": 4587,
      "ĠMy": 4588,
      "Ġstrategy": 4589,
      "Lesson": 4590,
      "ĠPosts": 4591,
      "Ġcounter": 4592,
      "74": 4593,
      "ĊĠĠĠĠĠĠĠĠĠĠĠĠĠĠĠ": 4594,
      "Ġoutside": 4595,
      "ze": 4596,
      "ugg": 4597,
      "ĠAre": 4598,
      "Ġimaginary": 4599,
      "Ġdescribes": 4600,
      "DF": 4601,
      "ĠTerms": 4602,
      "ĠClar": 4603,
      "Ġpicture": 4604,
      "Ġextra": 4605,
      "ĠJune": 4606,
      "reg": 4607,
      "Ġgoal": 4608,
      "Age": 4609,
      "Ġsomeone": 4610,
      "ront": 4611,
      "Ġcovered": 4612,
      "Ġteaching": 4613,
      "negative": 4614,
      "Ġpain": 4615,
      "down": 4616,
      "Ġiden": 4617,
      "Ġrelevant": 4618,
      "Ġnear": 4619,
      "Ġsetting": 4620,
      "Ġchapter": 4621,
      "Ġshowing": 4622,
      "tempt": 4623,
      "Ġcu": 4624,
      "idean": 4625,
      "ught": 4626,
      "cer": 4627,
      "ĠScal": 4628,
      "Comment": 4629,
      "ultaneous": 4630,
      "ĠVariable": 4631,
      "Ġland": 4632,
      "Ġcorrelation": 4633,
      "ertia": 4634,
      "ecture": 4635,
      "Ġ2006": 4636,
      "Ġmaxim": 4637,
      "adrant": 4638,
      "Comple": 4639,
      "Ġsimplest": 4640,
      "ĠIm": 4641,
      "Or": 4642,
      "Subtract": 4643,
      "Ġwa": 4644,
      "Ġstarts": 4645,
      "Ġanalyzing": 4646,
      "Ġrectangles": 4647,
      "Ġind": 4648,
      "ĠPython": 4649,
      "var": 4650,
      "92": 4651,
      "Ġri": 4652,
      "with": 4653,
      "ĠVelocity": 4654,
      "Ġscores": 4655,
      "bf": 4656,
      "#####": 4657,
      "Next": 4658,
      "bsolute": 4659,
      "Ġagainst": 4660,
      "Ġconclusion": 4661,
      "Ġhappens": 4662,
      "etermin": 4663,
      "Ġmg": 4664,
      "ĠContinu": 4665,
      "Ġeducational": 4666,
      "Ġpuzzle": 4667,
      "Definition": 4668,
      "Ġloop": 4669,
      "Ġfun": 4670,
      "ĠMP": 4671,
      "riminant": 4672,
      "300": 4673,
      "Ġstrong": 4674,
      "Ġbeh": 4675,
      "Ġ2018": 4676,
      "Ġcentimeters": 4677,
      "aries": 4678,
      "hr": 4679,
      "Ġfourth": 4680,
      "Evaluate": 4681,
      "umul": 4682,
      "/\\": 4683,
      "Which": 4684,
      "Ġinvestig": 4685,
      "Ġproofs": 4686,
      "Grade": 4687,
      "ĠMake": 4688,
      "mol": 4689,
      "Ġsegments": 4690,
      "Volume": 4691,
      "Ġtang": 4692,
      "]\\).": 4693,
      "Ġguid": 4694,
      "Ġ84": 4695,
      "^*": 4696,
      "Ġthough": 4697,
      "97": 4698,
      "overrightarrow": 4699,
      "And": 4700,
      "Ġwire": 4701,
      "col": 4702,
      "orp": 4703,
      "square": 4704,
      "Ġsold": 4705,
      "Ġtopic": 4706,
      "forward": 4707,
      "Ġbegin": 4708,
      "uments": 4709,
      "ĠTake": 4710,
      "ĠTyp": 4711,
      "Ġnorm": 4712,
      "Ġtheorems": 4713,
      "ulty": 4714,
      "ourier": 4715,
      "ogram": 4716,
      "ĠQuan": 4717,
      "af": 4718,
      "Ġaccuracy": 4719,
      "calcul": 4720,
      "Ġlocal": 4721,
      "entals": 4722,
      "Ġprincipal": 4723,
      "self": 4724,
      "onymous": 4725,
      "Ġannual": 4726,
      "antum": 4727,
      "ession": 4728,
      "Ġbro": 4729,
      "jection": 4730,
      "IS": 4731,
      "];": 4732,
      "Ġ96": 4733,
      "ctive": 4734,
      "ĠPage": 4735,
      "Ġisosceles": 4736,
      "Ġassociated": 4737,
      "Ġstructures": 4738,
      "reci": 4739,
      "Ġboard": 4740,
      "Ġmole": 4741,
      "}|": 4742,
      "though": 4743,
      "Ġconverges": 4744,
      "Ġtriangular": 4745,
      "Ġphysical": 4746,
      "ĠGaus": 4747,
      "raints": 4748,
      "Ġdivisors": 4749,
      "ĠâĢĶ": 4750,
      "Ġblocks": 4751,
      "Ġmaterials": 4752,
      "ellow": 4753,
      "oes": 4754,
      "Ġrear": 4755,
      "Ġorgan": 4756,
      "ĠBinomial": 4757,
      "bitra": 4758,
      "Ġsigns": 4759,
      "Ġcompar": 4760,
      "Ġwalk": 4761,
      "MP": 4762,
      "Ġhouse": 4763,
      "Ġhyperbol": 4764,
      "ĠConcept": 4765,
      "Ġdefinitions": 4766,
      "Ġoverview": 4767,
      "Ġinduction": 4768,
      "room": 4769,
      "ĠAugust": 4770,
      "ordinates": 4771,
      "pecially": 4772,
      "Ġextre": 4773,
      "Ġseven": 4774,
      "Ġderive": 4775,
      "ĠLimit": 4776,
      "Ġacting": 4777,
      "ĠMid": 4778,
      "Ġreturns": 4779,
      "Ġseen": 4780,
      "ajor": 4781,
      "ĠHigh": 4782,
      "Ġsymmetric": 4783,
      "ĠJohn": 4784,
      "Ġroom": 4785,
      "Ġreflection": 4786,
      "homb": 4787,
      "uel": 4788,
      "df": 4789,
      "Discussion": 4790,
      "ĠNCERT": 4791,
      "Ġoption": 4792,
      "ĠReplies": 4793,
      "Ġassess": 4794,
      "ĠCalculations": 4795,
      "ploy": 4796,
      "uesday": 4797,
      "Ġ110": 4798,
      "ĠCollege": 4799,
      "360": 4800,
      "Ġenhance": 4801,
      "ĠSm": 4802,
      "Ġerrors": 4803,
      "Ġinvolved": 4804,
      "Chapter": 4805,
      "Ġcomposite": 4806,
      "Ġmeasuring": 4807,
      "apping": 4808,
      "Ġmetric": 4809,
      "ising": 4810,
      "ĠWed": 4811,
      "Fe": 4812,
      "Ġbranch": 4813,
      "artesian": 4814,
      "Ġseems": 4815,
      "Rec": 4816,
      "Ġstraightforward": 4817,
      "ĠMonday": 4818,
      "ĠJuly": 4819,
      "ĠIntegration": 4820,
      "Ġdependent": 4821,
      "Ġadjust": 4822,
      "Ġste": 4823,
      "requency": 4824,
      "ĠMark": 4825,
      "Ġcompany": 4826,
      "Ġrecord": 4827,
      "Ġbooks": 4828,
      "https": 4829,
      "matic": 4830,
      "ĠFri": 4831,
      "Ġeffective": 4832,
      "Ġboundary": 4833,
      "aging": 4834,
      "Ġorth": 4835,
      "Ġdiagonals": 4836,
      "ĠMethods": 4837,
      "Ġdistributed": 4838,
      "Ġidentical": 4839,
      "Ġideas": 4840,
      "ĠPrinci": 4841,
      "ĠMember": 4842,
      "ĠDenominator": 4843,
      "Ġweigh": 4844,
      "ĠMultiple": 4845,
      "Ġespecially": 4846,
      "Geomet": 4847,
      "ranging": 4848,
      "Ġsubset": 4849,
      "ĠDoes": 4850,
      "ĠĠĠĠĠĠĠĠĠĠĠĠĠĠ": 4851,
      "kes": 4852,
      "Ġlbs": 4853,
      "Dec": 4854,
      "opp": 4855,
      "Ġindicating": 4856,
      "hline": 4857,
      "71": 4858,
      "gen": 4859,
      "Ġmx": 4860,
      "Ġheads": 4861,
      "|------------": 4862,
      "ĠDE": 4863,
      "ĠVectors": 4864,
      "Ġlay": 4865,
      "Ġradical": 4866,
      "ked": 4867,
      "entially": 4868,
      "Ġproced": 4869,
      "det": 4870,
      "ials": 4871,
      "Ġminus": 4872,
      "Ġhelpful": 4873,
      "ĠCase": 4874,
      "}{-": 4875,
      "}\\):": 4876,
      "Ġ85": 4877,
      "ĠCompare": 4878,
      "ĠHypot": 4879,
      "prime": 4880,
      "Ġloss": 4881,
      "ml": 4882,
      "Ġturns": 4883,
      "Ġchord": 4884,
      "ĠProgram": 4885,
      "ĠGCF": 4886,
      ",\\": 4887,
      "nesday": 4888,
      "Ġsections": 4889,
      "Ġtick": 4890,
      "Ġaxes": 4891,
      "Ġdecision": 4892,
      "board": 4893,
      "82": 4894,
      "aught": 4895,
      "ĠPlease": 4896,
      "ĠInst": 4897,
      "Ġobserved": 4898,
      "csc": 4899,
      "ĠApply": 4900,
      "ĠConstruct": 4901,
      "Ġemphas": 4902,
      "isk": 4903,
      "armonic": 4904,
      "Ġdecrease": 4905,
      "ros": 4906,
      "Ġmaintain": 4907,
      "rie": 4908,
      "hood": 4909,
      "hel": 4910,
      "aylor": 4911,
      "oman": 4912,
      "Ġtutorial": 4913,
      "Ġoffer": 4914,
      "ĠSummary": 4915,
      "Ġfast": 4916,
      "$:": 4917,
      "Ġmaster": 4918,
      "Expl": 4919,
      "Ġbounded": 4920,
      "Ġellipse": 4921,
      "En": 4922,
      "ĠFl": 4923,
      "Ġmillion": 4924,
      "Ġexercise": 4925,
      "Description": 4926,
      "ĠAuthor": 4927,
      "net": 4928,
      "number": 4929,
      "Ġ51": 4930,
      "mutative": 4931,
      "Ġeffectively": 4932,
      "rinomial": 4933,
      "Ġcaus": 4934,
      "plic": 4935,
      "Ġliters": 4936,
      "Ġ01": 4937,
      "Ġconverting": 4938,
      "Ġvariation": 4939,
      "Ġ2000": 4940,
      "ĠValues": 4941,
      "Ġ68": 4942,
      "andom": 4943,
      "Ġphase": 4944,
      "Ġpositions": 4945,
      "ĠAx": 4946,
      "ĠCub": 4947,
      "Ġtrigonometry": 4948,
      "Ġdiscussed": 4949,
      "ĠDerivatives": 4950,
      "Ġprism": 4951,
      "omog": 4952,
      "Ġtrapezoid": 4953,
      "fully": 4954,
      "150": 4955,
      "Ġalone": 4956,
      "iii": 4957,
      "Ġlogarithms": 4958,
      "ĠInequality": 4959,
      "He": 4960,
      "Ġdollars": 4961,
      "ĠCap": 4962,
      "Ġteachers": 4963,
      "Ġ125": 4964,
      "Ġbul": 4965,
      "ĠMixed": 4966,
      "Ġdiscount": 4967,
      "mediate": 4968,
      "Ġarbitra": 4969,
      "exp": 4970,
      "Ġlater": 4971,
      "ptotes": 4972,
      ")$,": 4973,
      "Ġdemonstrates": 4974,
      "ĠIde": 4975,
      "ulations": 4976,
      "Ġlonger": 4977,
      "Ġmarks": 4978,
      "Ġhim": 4979,
      "ales": 4980,
      "Ġdiscuss": 4981,
      "scill": 4982,
      "Ġseem": 4983,
      "infor": 4984,
      "Ġ250": 4985,
      "ĠUnderstand": 4986,
      "ĠFourier": 4987,
      "Ġprogramming": 4988,
      "ush": 4989,
      ")^{-": 4990,
      "Ġperformance": 4991,
      "Ġsquared": 4992,
      "gests": 4993,
      "Ġcombined": 4994,
      "ĠExper": 4995,
      "Ġdesired": 4996,
      "ĠDescription": 4997,
      "Ġtoday": 4998,
      "')": 4999,
      "ĠRot": 5000,
      "Ġsignificance": 5001,
      "Ġpassing": 5002,
      "Ġaltern": 5003,
      "since": 5004,
      "pic": 5005,
      "Ġends": 5006,
      "Exerc": 5007,
      "Ġstructured": 5008,
      "Ind": 5009,
      "Standard": 5010,
      "Ġincl": 5011,
      "uzzles": 5012,
      "ĠField": 5013,
      "valued": 5014,
      "Ġdivid": 5015,
      "ĠSequence": 5016,
      "ĠPlane": 5017,
      "ident": 5018,
      "Ġtail": 5019,
      "Ġsearch": 5020,
      "inders": 5021,
      "ĠResponse": 5022,
      "ĠIntegrals": 5023,
      "hombus": 5024,
      "ĠStudy": 5025,
      "Ġachieve": 5026,
      "suming": 5027,
      "HS": 5028,
      "Ġconve": 5029,
      "Ġsituation": 5030,
      "Ġsales": 5031,
      "Ġdistributive": 5032,
      "ĠAverage": 5033,
      "Ġyields": 5034,
      "ĠStandards": 5035,
      "aligned": 5036,
      "Ġcollision": 5037,
      "ecific": 5038,
      "ĠInitial": 5039,
      "ĠPlot": 5040,
      "Ġconven": 5041,
      "Ġdecom": 5042,
      ")\\):": 5043,
      "ived": 5044,
      "Ġ53": 5045,
      "Ġeigenve": 5046,
      "rence": 5047,
      "den": 5048,
      "ĠCartesian": 5049,
      "Ġencou": 5050,
      "abul": 5051,
      "nsure": 5052,
      "\\}\\)": 5053,
      "Ġyards": 5054,
      "Theorem": 5055,
      "Ġfav": 5056,
      "Ġstarted": 5057,
      "Ġfloor": 5058,
      "Ġ66": 5059,
      "Ġuser": 5060,
      "Ġfoundation": 5061,
      "Ġtarget": 5062,
      "Ġ600": 5063,
      "Ġ58": 5064,
      "((": 5065,
      "ĠFurther": 5066,
      "dis": 5067,
      "Ġeigenvalues": 5068,
      "Ġupd": 5069,
      "cend": 5070,
      "Ġwinning": 5071,
      "Ġpages": 5072,
      "ĠFour": 5073,
      "ĠTuesday": 5074,
      "Ġlogarithmic": 5075,
      "ĠĠĠĠĠĠĠĠĠĠĠĠĠĠĠĠĠ": 5076,
      "edia": 5077,
      "Ġsuit": 5078,
      "Ġap": 5079,
      "Ġimproper": 5080,
      "999": 5081,
      "Ġutil": 5082,
      "ĠUnits": 5083,
      "Ġfif": 5084,
      "Ġhappen": 5085,
      ".;": 5086,
      "Ġhence": 5087,
      "Ġ2019": 5088,
      "ĠNormal": 5089,
      "ĠEvery": 5090,
      "Ġfront": 5091,
      "Ġparentheses": 5092,
      "riter": 5093,
      "ĠDay": 5094,
      "ĠYes": 5095,
      "Ġgl": 5096,
      "Ġ57": 5097,
      "iron": 5098,
      "Ġefficiency": 5099,
      "Ġbases": 5100,
      "ones": 5101,
      "ĠPercentage": 5102,
      "ĠList": 5103,
      "tica": 5104,
      "Ġchart": 5105,
      "istory": 5106,
      "ism": 5107,
      "ĠCost": 5108,
      "''(": 5109,
      "km": 5110,
      "adem": 5111,
      "Ġaut": 5112,
      "Ġ78": 5113,
      "ridge": 5114,
      "ursday": 5115,
      "Ġcompared": 5116,
      "Ġresearch": 5117,
      "ometers": 5118,
      "Ġfair": 5119,
      "Ġacceler": 5120,
      "ĠEduc": 5121,
      "Ġlanguage": 5122,
      "Ġpossib": 5123,
      "CO": 5124,
      "Ġprecise": 5125,
      "94": 5126,
      "iter": 5127,
      "ctions": 5128,
      "Ġcommun": 5129,
      "ĠEd": 5130,
      "edback": 5131,
      "Ġappreci": 5132,
      "Ġtrack": 5133,
      "ination": 5134,
      "ĠWhole": 5135,
      "93": 5136,
      "ĠSta": 5137,
      "ĠEuclidean": 5138,
      "Ġcorresponds": 5139,
      "ply": 5140,
      "Ġclaim": 5141,
      "Ġmeter": 5142,
      "Ġproduced": 5143,
      "Ġformatted": 5144,
      "Ġcarry": 5145,
      "Ġbehind": 5146,
      "Ad": 5147,
      "\\)).": 5148,
      "ĠNone": 5149,
      "Ġspread": 5150,
      "ister": 5151,
      "Ġchanging": 5152,
      "Ġmembers": 5153,
      "Ġreduced": 5154,
      "Ġnotice": 5155,
      "Ġnine": 5156,
      "Ġcontradic": 5157,
      "ĠInformation": 5158,
      "Ġreduce": 5159,
      "ĠKnow": 5160,
      "box": 5161,
      "Ġmeaningful": 5162,
      "Ġtransfer": 5163,
      "ĠDefinitions": 5164,
      "udok": 5165,
      "Ġversion": 5166,
      "Ġdifficult": 5167,
      "omogene": 5168,
      "jugate": 5169,
      "Ġscenarios": 5170,
      "Ġtowards": 5171,
      "istics": 5172,
      "600": 5173,
      "Ġcorners": 5174,
      "Ġlik": 5175,
      "Ġincreased": 5176,
      "Ġexploration": 5177,
      "Ġhome": 5178,
      "Ġjoin": 5179,
      "ĠLimits": 5180,
      "Ġcapacity": 5181,
      "veled": 5182,
      "icity": 5183,
      "Ġmachine": 5184,
      "ĠMoment": 5185,
      "change": 5186,
      "Ġcorner": 5187,
      "ĠParallel": 5188,
      "Ġcomplexity": 5189,
      "Ġ2020": 5190,
      "Ġiss": 5191,
      "Ġ\\)).": 5192,
      "Ġcomparing": 5193,
      "ĠSign": 5194,
      "Ġesta": 5195,
      "oe": 5196,
      "With": 5197,
      "ĠWednesday": 5198,
      "Ġoun": 5199,
      "gra": 5200,
      "Ġasympto": 5201,
      "Ġsuggests": 5202,
      "Ġempty": 5203,
      "Ġ62": 5204,
      "ĠAdvanced": 5205,
      "ĠCoe": 5206,
      "length": 5207,
      "Tags": 5208,
      "Ac": 5209,
      "mark": 5210,
      "Ġdirections": 5211,
      "Ġfail": 5212,
      "Ġinvestment": 5213,
      "Ġlooks": 5214,
      "ĠAbout": 5215,
      "ĠCore": 5216,
      "apers": 5217,
      "ĠConf": 5218,
      "Ġring": 5219,
      "Ġexcept": 5220,
      "ĠRepe": 5221,
      "61": 5222,
      "ĠTaylor": 5223,
      "Ġ144": 5224,
      "Ġflo": 5225,
      "Ġchallenge": 5226,
      "Ġcreated": 5227,
      "ads": 5228,
      "ĠÐ": 5229,
      "Ġbise": 5230,
      "}+": 5231,
      "250": 5232,
      "Ġ98": 5233,
      "Ġboys": 5234,
      "Ġillustrate": 5235,
      "Ġ$$\\": 5236,
      "Ġdenote": 5237,
      "Ġ@": 5238,
      "ĠType": 5239,
      "Ġnotes": 5240,
      "ĠInde": 5241,
      "Ġpermutations": 5242,
      "posed": 5243,
      "Introduction": 5244,
      "Ġ(\\(\\": 5245,
      "Ġtre": 5246,
      "ĠGe": 5247,
      "nab": 5248,
      "Form": 5249,
      "iliar": 5250,
      "gory": 5251,
      "ogonal": 5252,
      "!}{": 5253,
      "à°": 5254,
      "abulary": 5255,
      "Ġcells": 5256,
      "Ġdepth": 5257,
      "olden": 5258,
      "ĠPerimeter": 5259,
      "Ġleaves": 5260,
      "ategory": 5261,
      "Ġisn": 5262,
      "ocabulary": 5263,
      "ĠAbsolute": 5264,
      "CT": 5265,
      "imes": 5266,
      "ĠThank": 5267,
      "Ġquite": 5268,
      "Ġlegs": 5269,
      "iquid": 5270,
      "Ġdistributions": 5271,
      "ĠAcceleration": 5272,
      "Ġboxes": 5273,
      "Ġlevels": 5274,
      "Ġstudies": 5275,
      "Related": 5276,
      "Ġbag": 5277,
      "______________________________________": 5278,
      "Ġobservations": 5279,
      "Ġdiagrams": 5280,
      "ĠMany": 5281,
      "Ġpor": 5282,
      "ĠBl": 5283,
      "ĠApplication": 5284,
      "Ġlie": 5285,
      "ĠError": 5286,
      "Ġconvergence": 5287,
      "ĠRange": 5288,
      "Ġtax": 5289,
      "Ġ08": 5290,
      "Ġcomments": 5291,
      "Ġself": 5292,
      "ream": 5293,
      "viron": 5294,
      "Ġcontinue": 5295,
      "Ġmph": 5296,
      "Ġtravels": 5297,
      "ernal": 5298,
      "ĠCourse": 5299,
      "ĠPrice": 5300,
      "ĠCB": 5301,
      "Ġapples": 5302,
      "arti": 5303,
      "Ġaccess": 5304,
      "nabla": 5305,
      "ĠFree": 5306,
      "ĠBu": 5307,
      "Ġmista": 5308,
      "Ġconstraints": 5309,
      "cell": 5310,
      "Ġcompletion": 5311,
      "ĠCounting": 5312,
      "Ġdiscriminant": 5313,
      ".âĢĿ": 5314,
      "Ġrecursive": 5315,
      "ĠMatrices": 5316,
      "off": 5317,
      "Subject": 5318,
      "cribe": 5319,
      "Part": 5320,
      "ĠVol": 5321,
      "irth": 5322,
      "nect": 5323,
      "Ġsituations": 5324,
      "After": 5325,
      "Ġfacts": 5326,
      "Ġcustom": 5327,
      "icro": 5328,
      "Ġelectron": 5329,
      "Ġsignal": 5330,
      "Ġsometimes": 5331,
      "Ġexer": 5332,
      "stract": 5333,
      "ĠĠĠĠĠĠĠĠĠĠĠĠĠĠĠ": 5334,
      "Ġ\\_": 5335,
      "Ġinteractive": 5336,
      "Ġprocesses": 5337,
      "jectile": 5338,
      "ults": 5339,
      "elines": 5340,
      "inally": 5341,
      "Ġlaws": 5342,
      "à¦": 5343,
      "Ġdisplay": 5344,
      "reed": 5345,
      "orn": 5346,
      "Ġconstruction": 5347,
      "Ġdiscrete": 5348,
      "ritten": 5349,
      "Ġpyramid": 5350,
      "Ġdevelopment": 5351,
      "ĠDesign": 5352,
      "ĠAnother": 5353,
      "Ġpolygons": 5354,
      "Ġinscribed": 5355,
      "isual": 5356,
      "ranged": 5357,
      "Ġgiving": 5358,
      "Ġreinfor": 5359,
      "Ġcollect": 5360,
      "Ġ03": 5361,
      "ortun": 5362,
      "Ġ2005": 5363,
      "ĠEven": 5364,
      "Ġfoundational": 5365,
      "EM": 5366,
      "Pri": 5367,
      "Ġfamily": 5368,
      "PS": 5369,
      "Start": 5370,
      "atur": 5371,
      "Ġmarg": 5372,
      "herical": 5373,
      "ĠInv": 5374,
      "encies": 5375,
      "Ġsimultaneous": 5376,
      "ĠRules": 5377,
      "Ġgirls": 5378,
      "ĠNext": 5379,
      "Ġlearned": 5380,
      "Ġanaly": 5381,
      "ĠFigure": 5382,
      ")|": 5383,
      "efined": 5384,
      "hedron": 5385,
      "ĠRet": 5386,
      "anced": 5387,
      "ĠActivity": 5388,
      "ological": 5389,
      "Ġeliminate": 5390,
      "Ġleads": 5391,
      "OA": 5392,
      "riculum": 5393,
      "Ġmajor": 5394,
      "Ġ67": 5395,
      "Ġ02": 5396,
      "Ġplayers": 5397,
      "QR": 5398,
      "Ġsoftware": 5399,
      "orts": 5400,
      "iling": 5401,
      "Ġcompletely": 5402,
      "plitude": 5403,
      "Ġsamples": 5404,
      "igits": 5405,
      "verti": 5406,
      "Ġtraveled": 5407,
      "Ġsuppl": 5408,
      "Ġmonthly": 5409,
      "uss": 5410,
      "Frac": 5411,
      "Ġenter": 5412,
      "Ġ05": 5413,
      "Ġability": 5414,
      "ET": 5415,
      "ĠLearn": 5416,
      "Identify": 5417,
      "Ġresistor": 5418,
      "lfloor": 5419,
      "ribute": 5420,
      "ĠTypes": 5421,
      "Ġmarbles": 5422,
      "Ġinfinitely": 5423,
      "ĠSimilarly": 5424,
      "Ġ07": 5425,
      "ENT": 5426,
      "ograph": 5427,
      "Ġtells": 5428,
      "Ġinitially": 5429,
      "Ġpurch": 5430,
      "Ġshift": 5431,
      "---|": 5432,
      "Ġatt": 5433,
      "rfloor": 5434,
      "ĠTrue": 5435,
      "Ġexplores": 5436,
      "ĠHy": 5437,
      "Ġaspect": 5438,
      "Trans": 5439,
      "ĠRef": 5440,
      "Ġfractional": 5441,
      "Ġ:=": 5442,
      "Ġnetwork": 5443,
      "ativity": 5444,
      "Ġ09": 5445,
      "ĠGreat": 5446,
      "ĠThursday": 5447,
      "ĠGame": 5448,
      "ilit": 5449,
      "Ġ04": 5450,
      "Ġ06": 5451,
      "Ġupon": 5452,
      "onds": 5453,
      "Distance": 5454,
      "ĠEnsure": 5455,
      "ĠChoose": 5456,
      "Ġsound": 5457,
      "ĠCurrent": 5458,
      "udoku": 5459,
      "Ġconsistent": 5460,
      "Ġcycle": 5461,
      "Ġ\\((\\": 5462,
      "Ġbuy": 5463,
      "Ġhomework": 5464,
      "Prove": 5465,
      "Ġpresented": 5466,
      "91": 5467,
      "ä¸": 5468,
      "ĠCircles": 5469,
      "usive": 5470,
      "neg": 5471,
      "asks": 5472,
      "Ġdat": 5473,
      "temp": 5474,
      "ĠDivis": 5475,
      "Ġslow": 5476,
      "Ġonto": 5477,
      "Ġmodeling": 5478,
      "graph": 5479,
      "sian": 5480,
      "ĠEvalu": 5481,
      "Ġsubstituting": 5482,
      "ĠConverting": 5483,
      "Ġrandomly": 5484,
      "Ġgradient": 5485,
      "ĠCal": 5486,
      "Ġpreser": 5487,
      "Ġrock": 5488,
      "Ġdemonstrate": 5489,
      "RO": 5490,
      "iers": 5491,
      "Ġatta": 5492,
      "Pa": 5493,
      "ifying": 5494,
      "ĠCompute": 5495,
      "ĠIII": 5496,
      "mitted": 5497,
      "sided": 5498,
      "Ġvary": 5499,
      "ĠĠĊĠĠĠĠ": 5500,
      "ĠSequences": 5501,
      "Ġsubst": 5502,
      "Check": 5503,
      "Ġquickly": 5504,
      "\")": 5505,
      "ury": 5506,
      "omogeneous": 5507,
      "cccc": 5508,
      "Ġelimination": 5509,
      "^{-\\": 5510,
      "Ġhum": 5511,
      "ĠRatios": 5512,
      "ĠJoined": 5513,
      "Ġsplit": 5514,
      "Ġlinks": 5515,
      "ĠMr": 5516,
      "Ġrole": 5517,
      "].": 5518,
      "Ġarri": 5519,
      "Ġtenth": 5520,
      "Ġchoices": 5521,
      "ĠPolyg": 5522,
      "Ġcancel": 5523,
      "BN": 5524,
      "ĠApproxim": 5525,
      "Ġideal": 5526,
      "Ġstreng": 5527,
      "Jun": 5528,
      "Ġcircuits": 5529,
      "Par": 5530,
      "UL": 5531,
      "Ġ\\);": 5532,
      "bsite": 5533,
      "ĠEarly": 5534,
      "Ġemploy": 5535,
      "no": 5536,
      "ĠEdition": 5537,
      "Ġtorque": 5538,
      "Square": 5539,
      "ancial": 5540,
      "Ġdecreases": 5541,
      "Ġalternative": 5542,
      "Ġstock": 5543,
      "venue": 5544,
      "aily": 5545,
      "Ġweights": 5546,
      "Ġ_": 5547,
      "110": 5548,
      "Ġnumerators": 5549,
      "Title": 5550,
      "Ġinertia": 5551,
      "Hi": 5552,
      "800": 5553,
      "unday": 5554,
      "outh": 5555,
      "total": 5556,
      "Sp": 5557,
      "bon": 5558,
      "Ġprecision": 5559,
      "ĠReason": 5560,
      "]}": 5561,
      "bed": 5562,
      "Ġimpact": 5563,
      "Ġconservation": 5564,
      "Ġaims": 5565,
      "hm": 5566,
      "iem": 5567,
      "ĠPuzzle": 5568,
      "Ġoutcome": 5569,
      "Ġdou": 5570,
      "Ġtrick": 5571,
      "rations": 5572,
      "Sep": 5573,
      "Exercise": 5574,
      "Ġresist": 5575,
      "Ġtesting": 5576,
      "Finding": 5577,
      "ĠRandom": 5578,
      "Ġyet": 5579,
      "Ġtension": 5580,
      "henomen": 5581,
      "Ġevaluating": 5582,
      "Ġdiscover": 5583,
      "Ġinner": 5584,
      "from": 5585,
      "Ġstic": 5586,
      "Ġwaves": 5587,
      "ery": 5588,
      "ĠLess": 5589,
      "Ġgallons": 5590,
      "coordinate": 5591,
      "Ġdealing": 5592,
      "Ġdiverg": 5593,
      "Ġhit": 5594,
      "Ġlocation": 5595,
      "ĠSee": 5596,
      "Ġassuming": 5597,
      "Ġgenerate": 5598,
      "2015": 5599,
      "Ġexperience": 5600,
      "Ġcontexts": 5601,
      "ĠTeacher": 5602,
      "ĠTheir": 5603,
      "Ġcharges": 5604,
      "Calculating": 5605,
      "icy": 5606,
      "ĠOutput": 5607,
      "rand": 5608,
      "Ġoperator": 5609,
      "All": 5610,
      "Ġallowing": 5611,
      "ĠQuiz": 5612,
      "ĠChemistry": 5613,
      "vare": 5614,
      "ĠCa": 5615,
      "Ġquadrant": 5616,
      "new": 5617,
      "Ġsimpler": 5618,
      "ĠSy": 5619,
      "ĠSpace": 5620,
      "Ġcharacteristic": 5621,
      "May": 5622,
      "Ġfactored": 5623,
      "Ġavoid": 5624,
      "Ġwheel": 5625,
      "Ġodds": 5626,
      "Percent": 5627,
      "ĠZero": 5628,
      "Ġconfus": 5629,
      "Ġyellow": 5630,
      "Ġlad": 5631,
      "OL": 5632,
      "Oct": 5633,
      "Ġoutl": 5634,
      "ĠCoordinate": 5635,
      "Ġ\\}": 5636,
      "ditional": 5637,
      "Ġoptions": 5638,
      "Ġinflu": 5639,
      "Ġdeep": 5640,
      "Ġbeginning": 5641,
      "Ġ59": 5642,
      "Ġcontact": 5643,
      "Ġcompleting": 5644,
      "space": 5645,
      "rict": 5646,
      "dro": 5647,
      "ĠImport": 5648,
      "vmatrix": 5649,
      "Ġtur": 5650,
      ")}{(": 5651,
      "Ġtook": 5652,
      "ories": 5653,
      "varepsilon": 5654,
      "Ġstore": 5655,
      "Out": 5656,
      "Ġ->": 5657,
      "Angle": 5658,
      "Ġrolling": 5659,
      "}=": 5660,
      "olumes": 5661,
      "ategories": 5662,
      "agement": 5663,
      "Ġpercentages": 5664,
      "Ġdecreasing": 5665,
      "Ġmir": 5666,
      "ĠOrig": 5667,
      "Ġsup": 5668,
      "section": 5669,
      "Ġidentifying": 5670,
      "poses": 5671,
      "ĠSymmet": 5672,
      "Ġworth": 5673,
      "unch": 5674,
      "Similar": 5675,
      "ĠMeasurement": 5676,
      "rew": 5677,
      "Ġcomputation": 5678,
      "Function": 5679,
      "Lear": 5680,
      "ĠStrateg": 5681,
      "Ġtalk": 5682,
      "faces": 5683,
      "ĠWhere": 5684,
      "Ġbey": 5685,
      "hour": 5686,
      "Ġmention": 5687,
      "Ġelectrical": 5688,
      "olf": 5689,
      "Ġoscill": 5690,
      "Ġbeyond": 5691,
      "ĠDeviation": 5692,
      "Ġdee": 5693,
      "ĠTheorems": 5694,
      "Ġequality": 5695,
      "Ġcycl": 5696,
      "Ġoptimal": 5697,
      "ĠBook": 5698,
      "ĠRelationsh": 5699,
      "Ġinstant": 5700,
      "ĠProject": 5701,
      "eli": 5702,
      "ĠHeight": 5703,
      "ient": 5704,
      "Ġsampling": 5705,
      "osition": 5706,
      "ES": 5707,
      "erior": 5708,
      "ĠNov": 5709,
      "Ġnp": 5710,
      "Hel": 5711,
      "comm": 5712,
      "oras": 5713,
      "ĠTangent": 5714,
      "vey": 5715,
      "ĠOdd": 5716,
      "ĠFollow": 5717,
      "Ġnodes": 5718,
      "Ġorbit": 5719,
      "ixture": 5720,
      "velength": 5721,
      "Ġanything": 5722,
      "ĠPlay": 5723,
      "ĠLogarithmic": 5724,
      "nu": 5725,
      "roll": 5726,
      "Sec": 5727,
      "Ġcreating": 5728,
      "Ġgenerally": 5729,
      "pected": 5730,
      "ĠTry": 5731,
      "ĠSudoku": 5732,
      "orting": 5733,
      "ourses": 5734,
      "meric": 5735,
      "Ġphenomen": 5736,
      "}-": 5737,
      "aterals": 5738,
      "ifications": 5739,
      "ows": 5740,
      "Ġjob": 5741,
      "Ġ240": 5742,
      "Ġtruth": 5743,
      "123": 5744,
      "Ġdepending": 5745,
      "ĠWhile": 5746,
      "Ġconsum": 5747,
      "vironment": 5748,
      "{(-": 5749,
      "elow": 5750,
      "icative": 5751,
      "Ġradic": 5752,
      "rable": 5753,
      "Ġclasses": 5754,
      "Â³": 5755,
      "orrow": 5756,
      "Ġsizes": 5757,
      "Ġ88": 5758,
      "ticles": 5759,
      "Ġhighlight": 5760,
      "Ġstop": 5761,
      "$)": 5762,
      "Ġrefers": 5763,
      "ney": 5764,
      "Ġindicate": 5765,
      "Ġ\\;": 5766,
      "ĠEngineering": 5767,
      "Ġarbitrary": 5768,
      "Ġsuper": 5769,
      "iemann": 5770,
      "Ġvariety": 5771,
      "ĊĊĠĠĠĠ": 5772,
      "Ġsy": 5773,
      "ĠMill": 5774,
      "Ġanyone": 5775,
      "ĠTH": 5776,
      "ĠST": 5777,
      "ĠSl": 5778,
      "ĠCube": 5779,
      "Ġounces": 5780,
      "ĠSunday": 5781,
      "Ġpul": 5782,
      "earrange": 5783,
      "Ġstation": 5784,
      "Ġincome": 5785,
      "Ġguidelines": 5786,
      "plementary": 5787,
      "Ġtherm": 5788,
      "Ġbits": 5789,
      "ĠCorrect": 5790,
      "arily": 5791,
      "Ġresource": 5792,
      "Ġapart": 5793,
      "ĠIntern": 5794,
      "Ġfamiliar": 5795,
      "na": 5796,
      "Ġintegrating": 5797,
      "Ġpredict": 5798,
      "Ġinternal": 5799,
      "........": 5800,
      "tt": 5801,
      "acy": 5802,
      "Ġframe": 5803,
      "ĠMechan": 5804,
      "ĠEv": 5805,
      "_\\": 5806,
      "psi": 5807,
      "Ġearn": 5808,
      "Ġreverse": 5809,
      "Ġpast": 5810,
      "Ġsubs": 5811,
      "Ġfeel": 5812,
      "ymbol": 5813,
      "Ġequally": 5814,
      "degree": 5815,
      "Ġengine": 5816,
      "ctan": 5817,
      "\\):**": 5818,
      "ĠFriday": 5819,
      "LCM": 5820,
      "ĠDefine": 5821,
      "umulative": 5822,
      "calculus": 5823,
      "wart": 5824,
      "Ġsheet": 5825,
      "Ġscenario": 5826,
      "Ġitem": 5827,
      "Ġcomparison": 5828,
      "Ġhands": 5829,
      "Ġliquid": 5830,
      "ĠElectric": 5831,
      "NO": 5832,
      "Ġquarter": 5833,
      "Ġneither": 5834,
      "Ġfaster": 5835,
      "Ġtiles": 5836,
      "otor": 5837,
      "Jan": 5838,
      "ĠWriting": 5839,
      "ĠRema": 5840,
      "name": 5841,
      "Ġ61": 5842,
      "ĠCompound": 5843,
      "Ġtraveling": 5844,
      "}^{-": 5845,
      "test": 5846,
      "ivalence": 5847,
      "Ġsite": 5848,
      "Ġelementary": 5849,
      "style": 5850,
      "ĠEuclid": 5851,
      "plane": 5852,
      "Ġinterpre": 5853,
      "Ġkilograms": 5854,
      "Ġpayment": 5855,
      "Ġexplains": 5856,
      "raft": 5857,
      "Ġlessons": 5858,
      "rance": 5859,
      ")!": 5860,
      "Ġcombine": 5861,
      "ynamics": 5862,
      "Ġusage": 5863,
      "Ġ{\\": 5864,
      "Ġpaid": 5865,
      "base": 5866,
      "lli": 5867,
      "ont": 5868,
      "ĠAg": 5869,
      "osp": 5870,
      "Ġstatistic": 5871,
      "Ġleaving": 5872,
      "AM": 5873,
      "function": 5874,
      "Ġcomputed": 5875,
      "rich": 5876,
      "Ġintroduced": 5877,
      "ĠTranscend": 5878,
      "year": 5879,
      "Ġgenerated": 5880,
      "Ġcomputing": 5881,
      "ĠPi": 5882,
      "edge": 5883,
      "Vari": 5884,
      "Ġstatic": 5885,
      "Assume": 5886,
      "Ġintegrate": 5887,
      "Ġraised": 5888,
      "001": 5889,
      "uf": 5890,
      "ĠEl": 5891,
      "elihood": 5892,
      "hemical": 5893,
      "ĠSets": 5894,
      "Ġdividend": 5895,
      "ĠFrequency": 5896,
      "Mathematics": 5897,
      "han": 5898,
      "Options": 5899,
      "Ġalign": 5900,
      "})(": 5901,
      "Ġ$-": 5902,
      "ĠSpecific": 5903,
      "ĠInterpret": 5904,
      "ideos": 5905,
      "Ġ111": 5906,
      "Ġdeveloped": 5907,
      "rays": 5908,
      "Ġrepeating": 5909,
      "books": 5910,
      "ĠSpecial": 5911,
      "Ġparticles": 5912,
      "ground": 5913,
      "Ġapplies": 5914,
      "Ġshaded": 5915,
      "Ġworked": 5916,
      "Ġdemand": 5917,
      "etal": 5918,
      "Ġensures": 5919,
      "Ġcars": 5920,
      "lying": 5921,
      "ĠÂ£": 5922,
      "\\{": 5923,
      "Ġbeam": 5924,
      "lopes": 5925,
      "Mod": 5926,
      "LAB": 5927,
      "ĠCO": 5928,
      "based": 5929,
      "ĠComparing": 5930,
      "yste": 5931,
      "Ġrecomm": 5932,
      "ĠSpring": 5933,
      "Ġrhombus": 5934,
      "Hint": 5935,
      "Ġmoles": 5936,
      "Cre": 5937,
      "ĠâĤ": 5938,
      "Ġchallenging": 5939,
      "fe": 5940,
      "Ġnum": 5941,
      ".}": 5942,
      "rons": 5943,
      "Ġrunning": 5944,
      "ĠBi": 5945,
      "Ġ77": 5946,
      "ĠHypothesis": 5947,
      "Ġassumption": 5948,
      "ĠAccording": 5949,
      "Ġinch": 5950,
      "Ġendpoints": 5951,
      "Ġdidn": 5952,
      "pol": 5953,
      "Response": 5954,
      "Ġshif": 5955,
      "Ġrewrite": 5956,
      "ĠRepresentation": 5957,
      "alth": 5958,
      "Multiplication": 5959,
      "ocal": 5960,
      "Ġadvan": 5961,
      "ĠWeight": 5962,
      "uff": 5963,
      "mail": 5964,
      "display": 5965,
      "Expand": 5966,
      "Ġconjugate": 5967,
      "head": 5968,
      "group": 5969,
      "Ġintu": 5970,
      "Ġundefined": 5971,
      "But": 5972,
      "ĠBinary": 5973,
      "ework": 5974,
      "Ġpent": 5975,
      "ĠGet": 5976,
      "rient": 5977,
      "Ġlens": 5978,
      "Ġfriend": 5979,
      "ina": 5980,
      ")}\\": 5981,
      "Ġindeed": 5982,
      "radi": 5983,
      "TeX": 5984,
      "Ġconfig": 5985,
      "Ġliter": 5986,
      "ĠSide": 5987,
      "ĠSubstituting": 5988,
      "ĠProcess": 5989,
      "Ġsuitable": 5990,
      "oice": 5991,
      "ĠTool": 5992,
      "Ġeconomics": 5993,
      "ĠRemember": 5994,
      "ĠStudent": 5995,
      "Test": 5996,
      "Ġshortest": 5997,
      "ler": 5998,
      "xi": 5999,
      "vices": 6000,
      "ĠUs": 6001,
      "ĠLong": 6002,
      "varphi": 6003,
      "ĠPop": 6004,
      "tally": 6005,
      "Ġaltitude": 6006,
      "Ġskill": 6007,
      "eks": 6008,
      "ĠParam": 6009,
      "ĠâĪł": 6010,
      "ĠFinal": 6011,
      "Adding": 6012,
      "versal": 6013,
      "Ġruns": 6014,
      "ĠLeast": 6015,
      "mation": 6016,
      "Ġquantum": 6017,
      "ĠAmeric": 6018,
      "uals": 6019,
      "ĠCoordinates": 6020,
      "ighb": 6021,
      "ersion": 6022,
      "Ġexternal": 6023,
      "ĠComplete": 6024,
      "atus": 6025,
      "ĠAND": 6026,
      "Ab": 6027,
      "Ġ|\\": 6028,
      "ĠPositive": 6029,
      "ĠQuanti": 6030,
      "Ġwants": 6031,
      "ret": 6032,
      "Ġ2021": 6033,
      "opy": 6034,
      "âĪĴ": 6035,
      "Ġswitch": 6036,
      "ĠStewart": 6037,
      "Ġrounding": 6038,
      "ĠPo": 6039,
      "Practice": 6040,
      "ĠâĨ": 6041,
      "Ġremain": 6042,
      "ĠBay": 6043,
      "teen": 6044,
      "ĠVertical": 6045,
      "Ġ160": 6046,
      "ĠUS": 6047,
      "ĠJava": 6048,
      "Ġobvious": 6049,
      "ĠPair": 6050,
      "Ġaxi": 6051,
      "Ġvisualize": 6052,
      "ĠWill": 6053,
      "à¸": 6054,
      ")-": 6055,
      "Ġsq": 6056,
      "Ġsemi": 6057,
      "ĠCC": 6058,
      "Ġ76": 6059,
      "oper": 6060,
      "Ġkilometers": 6061,
      "Ġbank": 6062,
      "Geometry": 6063,
      "imeters": 6064,
      "Ġnor": 6065,
      "ĠBox": 6066,
      "ircle": 6067,
      ",-": 6068,
      "Yes": 6069,
      "iting": 6070,
      "Ġeverything": 6071,
      "ĠOnce": 6072,
      "ricks": 6073,
      "ĠBecause": 6074,
      "Ġrepresentations": 6075,
      "Ġcups": 6076,
      "roid": 6077,
      "Ġotherwise": 6078,
      "Ġfilled": 6079,
      "ĠSto": 6080,
      "Ġ((": 6081,
      "Ġconnection": 6082,
      "Ġwebsite": 6083,
      "Ġproportions": 6084,
      "Ġplanes": 6085,
      "Ġconcentration": 6086,
      "ĠDifferentiation": 6087,
      "ĠEquivalent": 6088,
      "ĠPDF": 6089,
      "ometer": 6090,
      "Ġprocedure": 6091,
      "Ġleave": 6092,
      "ĠBest": 6093,
      "Ġslight": 6094,
      "Ġdr": 6095,
      "Ġsuggest": 6096,
      "ooth": 6097,
      "Ġresid": 6098,
      "ĠMis": 6099,
      "TC": 6100,
      "isect": 6101,
      "IL": 6102,
      "ĠDifferent": 6103,
      "Some": 6104,
      "Ġresultant": 6105,
      "ĠRegression": 6106,
      "arctan": 6107,
      "Ġ140": 6108,
      "MA": 6109,
      "Ġoffers": 6110,
      "Ġconcise": 6111,
      "jectives": 6112,
      ")*": 6113,
      "Ġoverl": 6114,
      "}^\\": 6115,
      "ĠPythagoras": 6116,
      "omas": 6117,
      "ĠOption": 6118,
      "Feb": 6119,
      "Ġclearly": 6120,
      "ĠDC": 6121,
      "ilt": 6122,
      "Ġbc": 6123,
      "Ġarrow": 6124,
      "Post": 6125,
      "multipl": 6126,
      "rection": 6127,
      "Ġdetails": 6128,
      "Ġexceed": 6129,
      "icial": 6130,
      "Ġmind": 6131,
      "Each": 6132,
      "Vector": 6133,
      "Ġdeeper": 6134,
      "ĠAnalyz": 6135,
      "oolean": 6136,
      "Ġbill": 6137,
      "Ġ89": 6138,
      "ĠTechniques": 6139,
      "ĠHand": 6140,
      "my": 6141,
      "oad": 6142,
      "textbf": 6143,
      "Ġ69": 6144,
      "Ġmathematicians": 6145,
      "ĠMaximum": 6146,
      "**.": 6147,
      "Mean": 6148,
      "Ġrod": 6149,
      "ĠOur": 6150,
      "Ġbrack": 6151,
      "Last": 6152,
      "Ġconclude": 6153,
      "Ġarranged": 6154,
      "Ġconvex": 6155,
      "Ġcriter": 6156,
      "ĠAlternative": 6157,
      "ĠFalse": 6158,
      "Expon": 6159,
      "Ġdrop": 6160,
      "ĠVideo": 6161,
      "Ġbene": 6162,
      "\\(_": 6163,
      "Ġrig": 6164,
      "Ġrevolution": 6165,
      "Ġpipe": 6166,
      "Ġmechanics": 6167,
      "Ġcloser": 6168,
      "Big": 6169,
      "\\;\\;": 6170,
      "ascal": 6171,
      "ĠLab": 6172,
      "Ġtall": 6173,
      "Ġprogression": 6174,
      "ĠâĪĴ": 6175,
      "Ġcup": 6176,
      "ĊĠĠĠĊĠĠ": 6177,
      "enty": 6178,
      "Ġmile": 6179,
      "az": 6180,
      "irt": 6181,
      "Ġorthogonal": 6182,
      "bc": 6183,
      "ĠMedian": 6184,
      "Ġeffects": 6185,
      "ĠRecogn": 6186,
      "Ġcolors": 6187,
      "Dist": 6188,
      "Ġtriple": 6189,
      "ĠProf": 6190,
      "ĠLaTeX": 6191,
      "Ġpol": 6192,
      "ĠSubstitution": 6193,
      "Ġperc": 6194,
      "ĠOpen": 6195,
      "ĠExpress": 6196,
      "vin": 6197,
      "ĠDigits": 6198,
      "acks": 6199,
      "Ġfollowed": 6200,
      "llab": 6201,
      "arm": 6202,
      "ĠPrac": 6203,
      "ĠLook": 6204,
      "Multiplying": 6205,
      "Const": 6206,
      "Ġillustrates": 6207,
      "Ġ105": 6208,
      "Ġalmost": 6209,
      "ĠDimension": 6210,
      "Ġcapacitor": 6211,
      "Ġwidely": 6212,
      "Ġ73": 6213,
      "udes": 6214,
      "ikip": 6215,
      "ĠCongru": 6216,
      "izza": 6217,
      "ĠName": 6218,
      "BA": 6219,
      "Ġlabel": 6220,
      "ikipedia": 6221,
      "Ġnecessarily": 6222,
      "Content": 6223,
      "Ġproving": 6224,
      "lier": 6225,
      "html": 6226,
      "Ġcombining": 6227,
      ")$$": 6228,
      "Ġamplitude": 6229,
      "Ġexplicit": 6230,
      "ĠMater": 6231,
      "Ġcomplement": 6232,
      "ĠIdentity": 6233,
      "Ġforward": 6234,
      "ĠTw": 6235,
      "slope": 6236,
      "Ġreject": 6237,
      "amed": 6238,
      "engage": 6239,
      "Ġpot": 6240,
      "ĠBD": 6241,
      "Ġ800": 6242,
      "plot": 6243,
      "Ġtoss": 6244,
      "IF": 6245,
      "Ġhundreds": 6246,
      "Ġclassroom": 6247,
      "Ġasymptotes": 6248,
      "ĠTransformations": 6249,
      "po": 6250,
      "Ġbirth": 6251,
      "Ġpenc": 6252,
      "Ġsentence": 6253,
      "Ġextreme": 6254,
      "avig": 6255,
      "Ġcommonly": 6256,
      "indrical": 6257,
      "Ġfactorial": 6258,
      "Ġpurposes": 6259,
      "ĠDouble": 6260,
      "Show": 6261,
      "ĠCengage": 6262,
      "sel": 6263,
      "->": 6264,
      "Ġ108": 6265,
      "Ġphot": 6266,
      "Gamma": 6267,
      "Ġthick": 6268,
      "ĠTranscendentals": 6269,
      "Ġtrinomial": 6270,
      "Ġbusiness": 6271,
      "Ġrelations": 6272,
      "ĠStatis": 6273,
      "pped": 6274,
      "avid": 6275,
      "ï¼": 6276,
      "Ġdynamics": 6277,
      "ĠUnd": 6278,
      "Key": 6279,
      "uts": 6280,
      "Ġconditional": 6281,
      "limits": 6282,
      "ĠGuide": 6283,
      "height": 6284,
      "ĠBig": 6285,
      "Ġhighlights": 6286,
      "Ġstudying": 6287,
      "Class": 6288,
      "chang": 6289,
      "Ġoverall": 6290,
      "Ġwon": 6291,
      "ĠRiemann": 6292,
      "Ġpiv": 6293,
      "irect": 6294,
      "Ġefficiently": 6295,
      "Ġtend": 6296,
      "life": 6297,
      "uthors": 6298,
      "Ġpull": 6299,
      "cles": 6300,
      "Ġfinish": 6301,
      "Ġextend": 6302,
      "ingu": 6303,
      "educe": 6304,
      "}+\\": 6305,
      "displaystyle": 6306,
      "Ġreceived": 6307,
      "ĠWorld": 6308,
      "Combine": 6309,
      "Ġinputs": 6310,
      "rote": 6311,
      "Publ": 6312,
      "Ġfeatures": 6313,
      "ancy": 6314,
      "ĠPress": 6315,
      "Ġadv": 6316,
      "Ġsignificantly": 6317,
      "Ġmirror": 6318,
      "llabus": 6319,
      "Ġpossibilities": 6320,
      "Homework": 6321,
      "ĠTitle": 6322,
      "Ġcandid": 6323,
      "Statement": 6324,
      "ĠCross": 6325,
      "ĠKil": 6326,
      "Ġinterpretation": 6327,
      "PV": 6328,
      "ĠEm": 6329,
      "Ġlinearly": 6330,
      "Ġbigger": 6331,
      "Ġeducation": 6332,
      "However": 6333,
      "Ġful": 6334,
      "Ġrep": 6335,
      "Ġperformed": 6336,
      "ĠIdentities": 6337,
      "625": 6338,
      "ĠCurve": 6339,
      "Ġloan": 6340,
      "Base": 6341,
      "score": 6342,
      "Why": 6343,
      "CH": 6344,
      "ĠLogic": 6345,
      "ĠHave": 6346,
      "Ġcook": 6347,
      "Ġstret": 6348,
      "Ġmarket": 6349,
      "Second": 6350,
      "Ġinterested": 6351,
      "Ġprobably": 6352,
      "Ġreaches": 6353,
      "Digit": 6354,
      "Ġharmonic": 6355,
      "Ġperm": 6356,
      "Ġdatas": 6357,
      "ĠCreate": 6358,
      "ĠNet": 6359,
      "Ġhowever": 6360,
      "Phi": 6361,
      "ĠCel": 6362,
      "ĠBlock": 6363,
      "ripetal": 6364,
      "Ġteach": 6365,
      "Ġlat": 6366,
      "selves": 6367,
      "ĠPaper": 6368,
      "Ġboat": 6369,
      "Ġstrength": 6370,
      ")+": 6371,
      "ĠRev": 6372,
      "ĠNa": 6373,
      "ustif": 6374,
      ")!}": 6375,
      "Ġprimary": 6376,
      "Comp": 6377,
      "Ġ**(": 6378,
      "viations": 6379,
      "ancing": 6380,
      "ĠPerform": 6381,
      "ĠTem": 6382,
      "ABC": 6383,
      "ĠDown": 6384,
      "Ġ97": 6385,
      "Ġflat": 6386,
      "Ġnorth": 6387,
      "Ġinteraction": 6388,
      "Ġcohere": 6389,
      "ĠResult": 6390,
      "Ġstack": 6391,
      "ding": 6392,
      "Ġma": 6393,
      "Ġrank": 6394,
      "essor": 6395,
      "ĠDomain": 6396,
      "parallel": 6397,
      "ĠReasoning": 6398,
      "word": 6399,
      "oph": 6400,
      "9999": 6401,
      "Log": 6402,
      "Ġ+=": 6403,
      "Ġperiodic": 6404,
      "ĠRadius": 6405,
      "Ġautom": 6406,
      "Ġ101": 6407,
      "ĠBall": 6408,
      "Ġtextbook": 6409,
      "eled": 6410,
      "Draw": 6411,
      "Ġintersects": 6412,
      "Ġperforming": 6413,
      "Ġsn": 6414,
      "Ġencl": 6415,
      "ĠCenter": 6416,
      "ĠDeta": 6417,
      "hold": 6418,
      "Ġmess": 6419,
      "matlab": 6420,
      "orphis": 6421,
      "ĠNOT": 6422,
      "Ġlearners": 6423,
      "References": 6424,
      "Ġages": 6425,
      "Ġoct": 6426,
      "ĠMove": 6427,
      "ĠMulti": 6428,
      "OH": 6429,
      "Ġconcrete": 6430,
      "Ġrang": 6431,
      "Ġexplained": 6432,
      "UT": 6433,
      "Ġallowed": 6434,
      "Reg": 6435,
      "Ext": 6436,
      "Ġstress": 6437,
      "ypotenuse": 6438,
      "ecimal": 6439,
      "Ġformal": 6440,
      "arden": 6441,
      "Ġrotational": 6442,
      "ĠCyl": 6443,
      "Acc": 6444,
      "Be": 6445,
      "ached": 6446,
      "cript": 6447,
      "Up": 6448,
      "Ġcharacteristics": 6449,
      "Ġ87": 6450,
      "Ġproduces": 6451,
      "Ġproduction": 6452,
      "ensive": 6453,
      "Ġblog": 6454,
      "Ġdecay": 6455,
      "Order": 6456,
      "ĠOnline": 6457,
      "Sc": 6458,
      "ĠDevelop": 6459,
      "plicated": 6460,
      "Ġasymptote": 6461,
      "ĠLike": 6462,
      "Ġanalog": 6463,
      "ĠPe": 6464,
      "Ġladder": 6465,
      "Ġstri": 6466,
      "Ġintroduction": 6467,
      "Ġapplic": 6468,
      "My": 6469,
      "Ġconduct": 6470,
      "})\\)": 6471,
      "Differenti": 6472,
      "ributive": 6473,
      "ĠPubl": 6474,
      "Ġprepare": 6475,
      "ert": 6476,
      "Ġhal": 6477,
      "Ġwavelength": 6478,
      "Ġice": 6479,
      "101": 6480,
      "ĠRed": 6481,
      "Ġcombinator": 6482,
      "Point": 6483,
      "cluding": 6484,
      "Ġrevers": 6485,
      "ĠSine": 6486,
      "Ġwomen": 6487,
      "ĠGree": 6488,
      "Ġce": 6489,
      "Ġobserve": 6490,
      "Ġcomment": 6491,
      "Ġbatter": 6492,
      "Ð°": 6493,
      "Ġrisk": 6494,
      "endulum": 6495,
      "ĠView": 6496,
      "ĠInteger": 6497,
      "reedom": 6498,
      "Ġhope": 6499,
      "icals": 6500,
      "ĠInterval": 6501,
      "rage": 6502,
      "ĠMa": 6503,
      "ĠThink": 6504,
      "Ġprior": 6505,
      "forall": 6506,
      "ĠSelect": 6507,
      "ĠVisual": 6508,
      "ĠElements": 6509,
      "ĠMATLAB": 6510,
      "ĠLaws": 6511,
      "gif": 6512,
      "Ġwrote": 6513,
      "('": 6514,
      "CA": 6515,
      "ĠStruct": 6516,
      "Ġcents": 6517,
      "ken": 6518,
      "VA": 6519,
      "ĠShapes": 6520,
      "ĠRoman": 6521,
      "isson": 6522,
      "sius": 6523,
      "Ġframework": 6524,
      "ĠPolar": 6525,
      "just": 6526,
      "teq": 6527,
      "Ġsimplification": 6528,
      "Ġhorizon": 6529,
      "Ġasks": 6530,
      "3333": 6531,
      "cending": 6532,
      "ĠSch": 6533,
      "Ġbought": 6534,
      "ĠComment": 6535,
      "agonal": 6536,
      "ĠConstant": 6537,
      "Ġrotating": 6538,
      "Ġdaily": 6539,
      "Ġlocated": 6540,
      "ĠJust": 6541,
      "ĠBar": 6542,
      "Ġevidence": 6543,
      "ĠGaussian": 6544,
      "Ġmatches": 6545,
      "==": 6546,
      "Ġtried": 6547,
      "Ġimages": 6548,
      "ĠIndu": 6549,
      "Ġtermin": 6550,
      "Ġintended": 6551,
      "inty": 6552,
      "1111": 6553,
      "Ġ74": 6554,
      "Ġrope": 6555,
      "Ġexams": 6556,
      "ĠProv": 6557,
      "hip": 6558,
      "ĠDigit": 6559,
      "Case": 6560,
      "ĠIV": 6561,
      "Ġreve": 6562,
      "Ġyourself": 6563,
      "seteq": 6564,
      "Ġpublic": 6565,
      "Ġvertically": 6566,
      "ĠBack": 6567,
      "Ġretain": 6568,
      "ĠEigen": 6569,
      "Clar": 6570,
      "Ġsci": 6571,
      "fl": 6572,
      "Ġmixture": 6573,
      "Ġpartition": 6574,
      "cur": 6575,
      "Complex": 6576,
      "Ġspent": 6577,
      "ĠHall": 6578,
      "Ġspecifically": 6579,
      "ĠMomentum": 6580,
      "Ġencounter": 6581,
      "tainty": 6582,
      "oses": 6583,
      "Ġlikelihood": 6584,
      "Ġnames": 6585,
      "ĠMc": 6586,
      "cong": 6587,
      "Examples": 6588,
      "Ġimpossible": 6589,
      "ruck": 6590,
      "ĠBal": 6591,
      "Ġ]": 6592,
      "Ġcompletes": 6593,
      "Ġbisect": 6594,
      "Ġ71": 6595,
      "jecture": 6596,
      "orry": 6597,
      "Take": 6598,
      "eq": 6599,
      "tons": 6600,
      "Ġpoly": 6601,
      "gs": 6602,
      "Ġfinancial": 6603,
      "Ġexploring": 6604,
      "Ġarguments": 6605,
      "Ġnormally": 6606,
      "Ġray": 6607,
      "Ġ83": 6608,
      "Ġachie": 6609,
      "Ġ00": 6610,
      "Quadratic": 6611,
      "Thank": 6612,
      "Ġtreat": 6613,
      "}}}{": 6614,
      "ipping": 6615,
      "Ġcontinuity": 6616,
      "Ġcompounded": 6617,
      "Max": 6618,
      "aturday": 6619,
      "ĠSymbol": 6620,
      "gcd": 6621,
      "ĠNeed": 6622,
      "omic": 6623,
      "Ġwond": 6624,
      "Ġconfirms": 6625,
      "Ġkids": 6626,
      "Ġpuzzles": 6627,
      "^+": 6628,
      "jacent": 6629,
      "Ġtrip": 6630,
      "Length": 6631,
      "Ġmodulo": 6632,
      "fraction": 6633,
      "clusive": 6634,
      "Ġbisector": 6635,
      "Ġyoung": 6636,
      "Ðµ": 6637,
      "Ġacute": 6638,
      "Power": 6639,
      "Asked": 6640,
      "ulse": 6641,
      "ĠSun": 6642,
      "Ġslopes": 6643,
      "ĠIS": 6644,
      "ĠRequ": 6645,
      "bo": 6646,
      "Ġconverted": 6647,
      "Ġaction": 6648,
      "Ġtasks": 6649,
      "olumn": 6650,
      "Ġcontradiction": 6651,
      "\\)),": 6652,
      "))^": 6653,
      "ĠIN": 6654,
      "ĠGrow": 6655,
      "ĠTI": 6656,
      "ĠWeek": 6657,
      "ĠEducation": 6658,
      "Ġupward": 6659,
      "Ġrelate": 6660,
      "Ġ<<": 6661,
      "ĠPatterns": 6662,
      "iny": 6663,
      "Ġ--": 6664,
      "Average": 6665,
      "ĠComputer": 6666,
      "Ġradicals": 6667,
      "âĤ": 6668,
      "ĠABCD": 6669,
      "bie": 6670,
      "Ġimplications": 6671,
      "ĠApr": 6672,
      "Ġparametric": 6673,
      "Ġbring": 6674,
      "Ġsketch": 6675,
      "Ġaccurately": 6676,
      "Ġcopy": 6677,
      "Ġconstructed": 6678,
      "Ġ79": 6679,
      "Initial": 6680,
      "Ġmarked": 6681,
      "HF": 6682,
      "Ġintroduce": 6683,
      "ĠOff": 6684,
      "Ġapple": 6685,
      "Ġarch": 6686,
      "Ġorient": 6687,
      "iver": 6688,
      "Ġweeks": 6689,
      "Another": 6690,
      "ka": 6691,
      "enced": 6692,
      "ĠApp": 6693,
      "UE": 6694,
      "Ġdate": 6695,
      "ĠInters": 6696,
      "Ġcouple": 6697,
      "const": 6698,
      "à®": 6699,
      "ĠRectangle": 6700,
      "iring": 6701,
      "Ġreferred": 6702,
      "Ġremoved": 6703,
      "Ġdifferentiate": 6704,
      "Theta": 6705,
      "Ġey": 6706,
      "ĠImportant": 6707,
      "quaring": 6708,
      "istorical": 6709,
      "rown": 6710,
      "Ġeigenvectors": 6711,
      "*:": 6712,
      "Ġcondu": 6713,
      "Ġproceed": 6714,
      "++)": 6715,
      "Anal": 6716,
      "Ġfriends": 6717,
      ")^{\\": 6718,
      "ulating": 6719,
      "Ġ82": 6720,
      "Ġdeck": 6721,
      "Ġsemic": 6722,
      "Ġrelates": 6723,
      "Ġmasses": 6724,
      "Ġopportun": 6725,
      "ĠTables": 6726,
      "Ġatm": 6727,
      "Ġfeedback": 6728,
      "ĠmL": 6729,
      "Ġestimated": 6730,
      "Ġvolumes": 6731,
      "ĠStates": 6732,
      "ĠâĤ¹": 6733,
      "ĠWater": 6734,
      "Ġslightly": 6735,
      "Ġjour": 6736,
      "Ġcollege": 6737,
      "Ġremove": 6738,
      "ponses": 6739,
      "Ġprojectile": 6740,
      "ket": 6741,
      "Ġneighb": 6742,
      "Ġmotor": 6743,
      "Ġmentioned": 6744,
      "Ġdigital": 6745,
      "Ġcommutative": 6746,
      ")(-": 6747,
      "ĠDetermin": 6748,
      "ĠCelsius": 6749,
      "Ġclean": 6750,
      "\\);": 6751,
      "ĠWhe": 6752,
      "Ġreinforce": 6753,
      "earson": 6754,
      "Ġproved": 6755,
      "romag": 6756,
      "Ġportion": 6757,
      "tages": 6758,
      "Ġextension": 6759,
      "Ġfalls": 6760,
      "Ġpool": 6761,
      "paration": 6762,
      "Ġfrequencies": 6763,
      "Ġmaths": 6764,
      "Ġreplace": 6765,
      "Ġsun": 6766,
      "Ġsurfaces": 6767,
      "Ġque": 6768,
      "ĠModels": 6769,
      "reak": 6770,
      "ãģ": 6771,
      "Ġeveryday": 6772,
      "Ġcalculators": 6773,
      "circle": 6774,
      "tein": 6775,
      "::": 6776,
      "ĠExperim": 6777,
      "Ġprefer": 6778,
      "subseteq": 6779,
      "Ġvia": 6780,
      "ĠCapac": 6781,
      "ilk": 6782,
      "Ġ900": 6783,
      "Ġ\\)**": 6784,
      "Ġdynamic": 6785,
      ")`": 6786,
      "IV": 6787,
      "rum": 6788,
      "\\%\\)": 6789,
      "144": 6790,
      "under": 6791,
      "Gener": 6792,
      "Ġsin": 6793,
      "Ġmodulus": 6794,
      "**(": 6795,
      "Rad": 6796,
      "ĠâĨĴ": 6797,
      "UN": 6798,
      "Ġ91": 6799,
      "Ġearlier": 6800,
      "ĠTopic": 6801,
      "Physics": 6802,
      "Ġtouch": 6803,
      "Ġrevenue": 6804,
      "hic": 6805,
      "term": 6806,
      "PM": 6807,
      "ĠPowers": 6808,
      "Ġwat": 6809,
      "OC": 6810,
      "Ġ\\)),": 6811,
      "Do": 6812,
      "Ġexpressing": 6813,
      "Ġreducing": 6814,
      "ker": 6815,
      "Ġchoosing": 6816,
      "vial": 6817,
      "Ġtrials": 6818,
      "orse": 6819,
      "Ġvaries": 6820,
      "Ð¾": 6821,
      "Ġtrees": 6822,
      "ĠSw": 6823,
      "Side": 6824,
      "Ġ<=": 6825,
      "Se": 6826,
      "Ġrounded": 6827,
      "Ġfold": 6828,
      "Ġpole": 6829,
      "ĠRelevant": 6830,
      "aped": 6831,
      "Ġspherical": 6832,
      "Ġagree": 6833,
      "Ġ92": 6834,
      "ĠFactorization": 6835,
      "ĠStage": 6836,
      "Ġprofession": 6837,
      "ĠElementary": 6838,
      "Ġenvironment": 6839,
      "Ġhandle": 6840,
      "ĠAssess": 6841,
      "Apply": 6842,
      "Ġsus": 6843,
      "ĠFound": 6844,
      "istant": 6845,
      "Pr": 6846,
      "Ġextended": 6847,
      "cient": 6848,
      "Ġnumerous": 6849,
      "bt": 6850,
      "Ġposts": 6851,
      "ymmet": 6852,
      "rust": 6853,
      "ĠArch": 6854,
      "Ġdoor": 6855,
      "Ġisolate": 6856,
      "ĠOnly": 6857,
      "mo": 6858,
      "Ġ&\\": 6859,
      "pendence": 6860,
      "ĠNumerical": 6861,
      "ĠFlow": 6862,
      "Ġspect": 6863,
      "raint": 6864,
      "Ġoptimization": 6865,
      "Ġselling": 6866,
      "Ġlost": 6867,
      "Ġsyste": 6868,
      "Ġchallenges": 6869,
      "umference": 6870,
      "That": 6871,
      "Ġroad": 6872,
      "Sigma": 6873,
      "ĠVariance": 6874,
      "Ġaccum": 6875,
      "Ġnamed": 6876,
      "artile": 6877,
      "Ġgave": 6878,
      "Ġegg": 6879,
      "rist": 6880,
      "icense": 6881,
      "ctory": 6882,
      "2000": 6883,
      "Ġlabeled": 6884,
      "ĠAssign": 6885,
      "Ġdete": 6886,
      "]^": 6887,
      "stream": 6888,
      "ĠLaplace": 6889,
      "Ġcentered": 6890,
      "Ġasking": 6891,
      "orter": 6892,
      "Ġrewritten": 6893,
      "Combin": 6894,
      "Ġcompleted": 6895,
      "Ġmultiplicative": 6896,
      "ĠPrinciple": 6897,
      "'d": 6898,
      "Ġcalculates": 6899,
      "Ġcash": 6900,
      "RIC": 6901,
      "Ġnone": 6902,
      "OD": 6903,
      "ĠProofs": 6904,
      "ĠDate": 6905,
      "ĠFact": 6906,
      "Ġpati": 6907,
      "Ġcapacit": 6908,
      "Ġcomplicated": 6909,
      "SP": 6910,
      "variable": 6911,
      "2013": 6912,
      "reasing": 6913,
      "ĠCombine": 6914,
      "Ġmechanical": 6915,
      "vdots": 6916,
      "ĠBoard": 6917,
      "ĠActivities": 6918,
      "Ġsubt": 6919,
      "redit": 6920,
      "Ġelastic": 6921,
      "Possible": 6922,
      "ĠRadical": 6923,
      "Ġarrangement": 6924,
      "Ġsimultaneously": 6925,
      "ĠIr": 6926,
      "Ġregions": 6927,
      "ĠProgramming": 6928,
      "ĠUser": 6929,
      "orable": 6930,
      "write": 6931,
      "ĠText": 6932,
      "import": 6933,
      "ĠCosine": 6934,
      "Jul": 6935,
      "Ġaspects": 6936,
      "ĠĠĠĠĠĠĠĠĠĠĠĠĠĠĠĠĠĠ": 6937,
      "rus": 6938,
      "Ġtickets": 6939,
      "ĠExpand": 6940,
      "ki": 6941,
      "Ġexterior": 6942,
      "Ġhexagon": 6943,
      "parison": 6944,
      "00000000": 6945,
      "ĠExplore": 6946,
      "Ġ225": 6947,
      "Ġmagic": 6948,
      "Ġ!": 6949,
      "ĠHorizontal": 6950,
      "ĠTesting": 6951,
      "ĠMC": 6952,
      "ĠDiscrete": 6953,
      "Ġdots": 6954,
      "encing": 6955,
      "Ġcry": 6956,
      "tuse": 6957,
      "ĠInvestig": 6958,
      "Ġamounts": 6959,
      "clock": 6960,
      "vature": 6961,
      "ĠSaturday": 6962,
      "ĠAL": 6963,
      "Ġtaught": 6964,
      "*,": 6965,
      "Ġsector": 6966,
      "CE": 6967,
      "ĠPerpendicular": 6968,
      "UM": 6969,
      "Ġunc": 6970,
      "Ġmedium": 6971,
      "Ġnice": 6972,
      "Ġpaths": 6973,
      "Ġ<-": 6974,
      "Ġperiods": 6975,
      "Ġrepeat": 6976,
      "Ġexpanded": 6977,
      "Ġpaint": 6978,
      ")?": 6979,
      "Ġseparately": 6980,
      "ĠApplying": 6981,
      "Ġpret": 6982,
      "Ġdecide": 6983,
      "Ġsmooth": 6984,
      "Ġcontribution": 6985,
      "Ġequivalence": 6986,
      "}_{\\": 6987,
      "Ġrecognize": 6988,
      "ĠParabol": 6989,
      "Ġflows": 6990,
      "ĠMultiples": 6991,
      "Ġdifficulty": 6992,
      "Ġunless": 6993,
      "ributor": 6994,
      "ING": 6995,
      "ĠTree": 6996,
      "Round": 6997,
      "hetic": 6998,
      "Ġselecting": 6999,
      "Ġcounters": 7000,
      "ĠSeg": 7001,
      "April": 7002,
      "Your": 7003,
      "]:": 7004,
      "ĠSymmetry": 7005,
      "utors": 7006,
      "cludes": 7007,
      "ifies": 7008,
      "num": 7009,
      "Ġouter": 7010,
      "BT": 7011,
      "ĠPearson": 7012,
      "sert": 7013,
      "Ġsubsets": 7014,
      "aut": 7015,
      "Ġpure": 7016,
      "hers": 7017,
      "Col": 7018,
      "oday": 7019,
      "Ġindefinite": 7020,
      "Ġassumed": 7021,
      "ĠSI": 7022,
      "Ġnothing": 7023,
      "ider": 7024,
      "Ġstated": 7025,
      "$-": 7026,
      "}=\\": 7027,
      "Prime": 7028,
      "Ġ86": 7029,
      "ĠIdea": 7030,
      "ĠCoefficient": 7031,
      "Ġreceive": 7032,
      "Ġresistors": 7033,
      "dr": 7034,
      "ĠFlu": 7035,
      "Ġfifth": 7036,
      "aran": 7037,
      "Ġmodern": 7038,
      "urity": 7039,
      "Ġ210": 7040,
      "ĠLogarithms": 7041,
      "Ġhyperbola": 7042,
      "umbers": 7043,
      "Ġdeals": 7044,
      "));": 7045,
      "Ġjoining": 7046,
      "Ġge": 7047,
      "factor": 7048,
      "Ġphenomena": 7049,
      "ĠMATH": 7050,
      "Ġsubsequ": 7051,
      "iral": 7052,
      "Ġwins": 7053,
      "Ġbelong": 7054,
      "Ġfac": 7055,
      "ĠBob": 7056,
      "Ġreferences": 7057,
      "ĠPoisson": 7058,
      "ĠBern": 7059,
      "Ġmember": 7060,
      "Ġoccurring": 7061,
      "Ġengaging": 7062,
      "ĠEquil": 7063,
      "ĠClarification": 7064,
      "ĠGCD": 7065,
      "ĠQuadril": 7066,
      "ĠPeriod": 7067,
      "egrees": 7068,
      "ĠâĢ¦": 7069,
      "there": 7070,
      "ĠAv": 7071,
      "center": 7072,
      "Data": 7073,
      "ĠDirect": 7074,
      "Ġgrouping": 7075,
      "Ġ130": 7076,
      "ĠDon": 7077,
      "heres": 7078,
      "\\},": 7079,
      "Ġnumerals": 7080,
      "Ġunders": 7081,
      "**,": 7082,
      "Ġfore": 7083,
      "integ": 7084,
      "Ġabstract": 7085,
      "Ġ128": 7086,
      "Ġdeviations": 7087,
      "Ġconnecting": 7088,
      "Ġ112": 7089,
      "Matrix": 7090,
      "rat": 7091,
      "Ġclick": 7092,
      "ĠGames": 7093,
      "Ġassumptions": 7094,
      "ĠÏ": 7095,
      "ĠPartial": 7096,
      "Ġsuppose": 7097,
      "ishes": 7098,
      "Ġcompass": 7099,
      "Additional": 7100,
      "}\\)?": 7101,
      "sta": 7102,
      "enny": 7103,
      "ibrary": 7104,
      "ĠPossible": 7105,
      "Ġpermutation": 7106,
      "Ġevenly": 7107,
      "Section": 7108,
      "Ġreport": 7109,
      "Ġhuman": 7110,
      "ĠProportion": 7111,
      "Factoring": 7112,
      "ĠEstimate": 7113,
      "mg": 7114,
      "Ġmut": 7115,
      "Ġcomputational": 7116,
      "2014": 7117,
      "iversal": 7118,
      "Med": 7119,
      "\\_\\_\\_\\_\\_\\_\\_\\_\\_\\_\\_\\_\\_\\_\\_\\_\\_\\_\\_\\_\\_\\_\\_\\_\\_\\_\\_\\_\\_\\_\\_\\_": 7120,
      "ĠRadicals": 7121,
      "SC": 7122,
      "ĠEnd": 7123,
      "ĠForces": 7124,
      "MD": 7125,
      "Rational": 7126,
      "Ġentries": 7127,
      "Ġcourses": 7128,
      "ried": 7129,
      "magine": 7130,
      "]]": 7131,
      "grade": 7132,
      "Aug": 7133,
      "Ġcongruence": 7134,
      "ĠFeet": 7135,
      "Ġplate": 7136,
      "ãĢ": 7137,
      "Ġnth": 7138,
      "Ġintroduces": 7139,
      "Ġplug": 7140,
      "ufact": 7141,
      "Ð¸": 7142,
      "çļ": 7143,
      "Ġquart": 7144,
      "Ġattemp": 7145,
      "Ġmoved": 7146,
      "Ġinvested": 7147,
      "Ġlb": 7148,
      "Ġparticip": 7149,
      "BD": 7150,
      "etermining": 7151,
      "ĠPascal": 7152,
      "Ġthemselves": 7153,
      "çļĦ": 7154,
      "Ġbond": 7155,
      "ky": 7156,
      "Ġcomposition": 7157,
      "Â°.": 7158,
      "Cur": 7159,
      "Ġmix": 7160,
      "ĠDensity": 7161,
      "Ġdil": 7162,
      "ĠTutorial": 7163,
      "ipped": 7164,
      "iki": 7165,
      "ĠMaster": 7166,
      "à¤¾": 7167,
      "ĠCBSE": 7168,
      "vertible": 7169,
      "AG": 7170,
      "ĠOptim": 7171,
      "ĠSAT": 7172,
      "Ġ135": 7173,
      "Ġcat": 7174,
      "_{-": 7175,
      "Ġacts": 7176,
      "rugg": 7177,
      "level": 7178,
      "View": 7179,
      "Ġdiff": 7180,
      "XX": 7181,
      "Ġearth": 7182,
      "Ġselection": 7183,
      "\\|": 7184,
      "Ġ..": 7185,
      "ĠMathematica": 7186,
      "Ġspan": 7187,
      "Ã¶": 7188,
      "Ġfreedom": 7189,
      "Ġdiscusses": 7190,
      "Ġsing": 7191,
      "mediately": 7192,
      "bly": 7193,
      "Ġ________________": 7194,
      "ĠFive": 7195,
      "top": 7196,
      "ĠTests": 7197,
      "MS": 7198,
      "lobal": 7199,
      "Ġcurren": 7200,
      "Count": 7201,
      "Ġrecent": 7202,
      "ĠDr": 7203,
      "ishing": 7204,
      "Ġtechnology": 7205,
      "ĠSides": 7206,
      "qquad": 7207,
      "Ġsupply": 7208,
      "bits": 7209,
      "Ġrelatively": 7210,
      "ĠâĢº": 7211,
      "Ġson": 7212,
      "Ġobjective": 7213,
      "ontinu": 7214,
      "Final": 7215,
      "ĠGreek": 7216,
      "Ġstory": 7217,
      "ĠPotential": 7218,
      "ĠInput": 7219,
      "Slope": 7220,
      "Ġspeeds": 7221,
      "Ġdiscussions": 7222,
      "ancel": 7223,
      "Ġeast": 7224,
      "class": 7225,
      "Ġmanipulation": 7226,
      "Ġprojection": 7227,
      "Dividing": 7228,
      "related": 7229,
      "Ġelevation": 7230,
      "Ġcame": 7231,
      "Ġplots": 7232,
      "intercepts": 7233,
      "Min": 7234,
      "tery": 7235,
      "240": 7236,
      "oci": 7237,
      "ĠCentral": 7238,
      "uity": 7239,
      "Ġentry": 7240,
      "oding": 7241,
      "Three": 7242,
      "Unit": 7243,
      "ogle": 7244,
      "ĠAttempt": 7245,
      "ĠImpro": 7246,
      "Ġpizza": 7247,
      "Di": 7248,
      "ĠHer": 7249,
      "Ġpayments": 7250,
      "plain": 7251,
      "ĠIntro": 7252,
      "Ġpound": 7253,
      "ĠCy": 7254,
      "ĠAcadem": 7255,
      "ĠLessons": 7256,
      "rief": 7257,
      "Ġessentially": 7258,
      "ĠBuild": 7259,
      "Ġplant": 7260,
      "olved": 7261,
      "Ġcore": 7262,
      "rement": 7263,
      "Ġsurvey": 7264,
      "etra": 7265,
      "Ġestimation": 7266,
      "ĠSame": 7267,
      "ael": 7268,
      "ders": 7269,
      "plus": 7270,
      "ĠBus": 7271,
      "Ġradii": 7272,
      "ĠHig": 7273,
      "ructor": 7274,
      "correct": 7275,
      "Clarification": 7276,
      "Ġexperimental": 7277,
      "Ġlayer": 7278,
      "mv": 7279,
      "Am": 7280,
      "ocation": 7281,
      "Ġ,": 7282,
      "mage": 7283,
      "ĠWell": 7284,
      "ĠThird": 7285,
      "Ġconsisting": 7286,
      "ĠEvents": 7287,
      "ĠLecture": 7288,
      "ĠInstead": 7289,
      "ĠTags": 7290,
      "Ġever": 7291,
      "Ġdisk": 7292,
      "Ġlect": 7293,
      "Ġviews": 7294,
      "ĠFigures": 7295,
      "ĠConnect": 7296,
      "Valu": 7297,
      "Ġscatter": 7298,
      "ĠArc": 7299,
      "Ġtrial": 7300,
      "Ġcylindrical": 7301,
      "Ġuns": 7302,
      "Ġhydro": 7303,
      "Ġflux": 7304,
      "Ġ2022": 7305,
      "ĠRepeat": 7306,
      "bling": 7307,
      "ĠTransl": 7308,
      "Ġusers": 7309,
      "ĠTechnology": 7310,
      "TH": 7311,
      "ĠGood": 7312,
      "ĠPermut": 7313,
      "ĠCompon": 7314,
      "Ġdownward": 7315,
      "Learn": 7316,
      "ĠReading": 7317,
      "Ġsaving": 7318,
      "Ġplanet": 7319,
      "Ġdenotes": 7320,
      "Ġfem": 7321,
      "Ġpurpose": 7322,
      "ĠDescribe": 7323,
      "izations": 7324,
      "Ġche": 7325,
      "ĠMathematically": 7326,
      "900": 7327,
      "ops": 7328,
      "Ġthanks": 7329,
      "Rew": 7330,
      "joy": 7331,
      "Ġauthor": 7332,
      "blish": 7333,
      "bolds": 7334,
      "boldsymbol": 7335,
      "ĠTips": 7336,
      "tood": 7337,
      "Subtracting": 7338,
      "Ġinform": 7339,
      "Ġdollar": 7340,
      "ĠUsed": 7341,
      "oulli": 7342,
      "ĠVocabulary": 7343,
      "ĠMost": 7344,
      "Ġsatisfying": 7345,
      "Ġsubtracted": 7346,
      "Ġsen": 7347,
      "ĠPol": 7348,
      "pr": 7349,
      "Ġimmediately": 7350,
      "knowns": 7351,
      "Ġrearrange": 7352,
      "ĠAssoci": 7353,
      "ĠMechanics": 7354,
      "Ġdataset": 7355,
      "Ġglass": 7356,
      "Ġforming": 7357,
      "ĠPris": 7358,
      "ĠGreatest": 7359,
      "ĠEvaluating": 7360,
      "Ġmistake": 7361,
      "US": 7362,
      "Ġordinary": 7363,
      "^-": 7364,
      "Please": 7365,
      "ĠThrough": 7366,
      "ĠSums": 7367,
      "Ġgenerating": 7368,
      "chi": 7369,
      "$\\": 7370,
      "ID": 7371,
      "Ġbars": 7372,
      ".$$": 7373,
      "List": 7374,
      "EF": 7375,
      "Ġmathematically": 7376,
      "ĠIntrodu": 7377,
      "Ġhole": 7378,
      "}\\]": 7379,
      "mn": 7380,
      "Ġcoherence": 7381,
      "ÑĤ": 7382,
      "Ġcenters": 7383,
      "Alternative": 7384,
      "map": 7385,
      "Ġexerted": 7386,
      "Ġdefining": 7387,
      "ny": 7388,
      "Ġunion": 7389,
      "Ġsuggested": 7390,
      "Ġdescription": 7391,
      "Ġfood": 7392,
      "ĠAsym": 7393,
      "ĠAreas": 7394,
      "Ġattached": 7395,
      "elcome": 7396,
      "ĠTen": 7397,
      "Duration": 7398,
      "ĠBasics": 7399,
      "avi": 7400,
      "Proper": 7401,
      "ĠDan": 7402,
      "ĠGrowth": 7403,
      "Ġdecomposition": 7404,
      "Inverse": 7405,
      "Ġindicated": 7406,
      "Ġearly": 7407,
      "Ele": 7408,
      "Ġlisted": 7409,
      "uctive": 7410,
      "pective": 7411,
      "Ġisol": 7412,
      "Both": 7413,
      "Ġstick": 7414,
      "ĠElimin": 7415,
      "Ġfrequently": 7416,
      "Ġapplicable": 7417,
      "Bas": 7418,
      "zing": 7419,
      "Ġballo": 7420,
      "Ã¡": 7421,
      "Hello": 7422,
      "Ġcompe": 7423,
      "omorphis": 7424,
      "Ġcontained": 7425,
      "ĠRecur": 7426,
      "erge": 7427,
      "ĠSketch": 7428,
      "hypotenuse": 7429,
      "Ġmemory": 7430,
      "Ġfa": 7431,
      "ulated": 7432,
      "Ġreduces": 7433,
      "Ġmaps": 7434,
      "Ġtip": 7435,
      "ĠVenn": 7436,
      "ĠPay": 7437,
      "Ġgarden": 7438,
      "Ġaccumulation": 7439,
      "Ġrise": 7440,
      "Ġposted": 7441,
      "Ġfile": 7442,
      "Ax": 7443,
      "certainty": 7444,
      "Ġ2004": 7445,
      "Ġcontainer": 7446,
      "Ġwent": 7447,
      "Imp": 7448,
      "Ġknowing": 7449,
      "ints": 7450,
      "ticing": 7451,
      "Ġ123": 7452,
      "Ġbelieve": 7453,
      "ĠBased": 7454,
      "Ġcause": 7455,
      "Ġstrict": 7456,
      "ĠExtra": 7457,
      "iam": 7458,
      "ĠOR": 7459,
      "inding": 7460,
      "ĠFinally": 7461,
      "Ġnavig": 7462,
      "amil": 7463,
      "ifficulty": 7464,
      "-|": 7465,
      "Ġgraphical": 7466,
      "Ġinsight": 7467,
      "Ġsuccessive": 7468,
      "ĠGive": 7469,
      "Ġintercept": 7470,
      "Ġhorizontally": 7471,
      "choose": 7472,
      "Ġdownload": 7473,
      "mean": 7474,
      "Ġpreced": 7475,
      "ading": 7476,
      "Ġvehic": 7477,
      "Ġstrugg": 7478,
      "Ġquiz": 7479,
      "Ġthrown": 7480,
      "arl": 7481,
      "Ġintersecting": 7482,
      "March": 7483,
      "True": 7484,
      "ĠAssuming": 7485,
      "*)": 7486,
      "Graphing": 7487,
      "Hz": 7488,
      "ious": 7489,
      "ĠDavid": 7490,
      "Ġarr": 7491,
      "Inst": 7492,
      "Ġstands": 7493,
      "Ġstrings": 7494,
      "Ġ93": 7495,
      "Ġconfused": 7496,
      "even": 7497,
      "asc": 7498,
      "ĠCON": 7499,
      "Ġwanted": 7500,
      "bi": 7501,
      "ians": 7502,
      "Ġplaying": 7503,
      "CCSS": 7504,
      "Ġfully": 7505,
      "Ġcontinues": 7506,
      "ĠEnter": 7507,
      "Ġaxioms": 7508,
      "tention": 7509,
      "onic": 7510,
      "ĠExp": 7511,
      "Ġarcs": 7512,
      "Ġusual": 7513,
      "Explore": 7514,
      "Ġshorter": 7515,
      "Ġtypical": 7516,
      "Ġgrades": 7517,
      "Ġconversions": 7518,
      "list": 7519,
      "Ġmaximize": 7520,
      "operator": 7521,
      "ĠContents": 7522,
      "using": 7523,
      "Ġgradu": 7524,
      "Ġsimilarity": 7525,
      "'.": 7526,
      "Ġbags": 7527,
      "ĠPV": 7528,
      "aren": 7529,
      "Ġspe": 7530,
      "flow": 7531,
      "Ġreduction": 7532,
      "Ġestabl": 7533,
      "ĠCA": 7534,
      "olfram": 7535,
      "Ġobservation": 7536,
      "Ġgrasp": 7537,
      "Ġ\\|": 7538,
      "ĠColl": 7539,
      "!\"": 7540,
      "irection": 7541,
      "ĠDiagram": 7542,
      "/(": 7543,
      "Ġexperiences": 7544,
      "October": 7545,
      "Ġnuc": 7546,
      "Ġunlike": 7547,
      "Ġfavor": 7548,
      "ours": 7549,
      "ĠHeat": 7550,
      "Ġ(-\\": 7551,
      "Ġregarding": 7552,
      "ĠCombinations": 7553,
      "Ġchecking": 7554,
      "ĠMiddle": 7555,
      "Ġquality": 7556,
      "OP": 7557,
      "ĠPopulation": 7558,
      "ĠAsk": 7559,
      "Ġpendulum": 7560,
      "ung": 7561,
      "Ġintercepts": 7562,
      "Ġreli": 7563,
      "Ġ&&": 7564,
      "Ġtranslation": 7565,
      "inema": 7566,
      "105": 7567,
      "Ġsummar": 7568,
      "ĠSci": 7569,
      "Ġaccept": 7570,
      "Ġhomogeneous": 7571,
      "Ġwindow": 7572,
      "Ġcovering": 7573,
      "xx": 7574,
      "Ġbrackets": 7575,
      "mathema": 7576,
      "Ġtower": 7577,
      "ĠLag": 7578,
      "Ġdirected": 7579,
      "ĠSize": 7580,
      "Ġpretty": 7581,
      "ĠPolygons": 7582,
      "ager": 7583,
      "Cost": 7584,
      "Ġ94": 7585,
      "Ġhtt": 7586,
      "Ġprocessing": 7587,
      "Ġdepos": 7588,
      "Ġeveryone": 7589,
      "body": 7590,
      "Ġsources": 7591,
      "Ġmastering": 7592,
      "then": 7593,
      "Ġintuitive": 7594,
      "verting": 7595,
      "ĠNational": 7596,
      "Cor": 7597,
      "ĠYork": 7598,
      "ĠCircuit": 7599,
      "Ġrolls": 7600,
      "radius": 7601,
      "ĠSing": 7602,
      "Ġsupplementary": 7603,
      "Ġ115": 7604,
      "esh": 7605,
      "ĠĠĠĠĠĠĠĠĠĠĠĠĠĠĠĠĠĠĠ": 7606,
      "Ġwatch": 7607,
      "ĠNotice": 7608,
      "width": 7609,
      "Ġthroughout": 7610,
      "Ġcurriculum": 7611,
      "ĠScientific": 7612,
      "Ġmovement": 7613,
      "ĠEqual": 7614,
      "Orig": 7615,
      "Ġ^": 7616,
      "Ġvice": 7617,
      "Ġdiam": 7618,
      "Ġboy": 7619,
      "According": 7620,
      "ĠPresent": 7621,
      "Ġaddress": 7622,
      "Ġestimates": 7623,
      "dv": 7624,
      "ĠHistory": 7625,
      "ĠRates": 7626,
      "data": 7627,
      "Ġalph": 7628,
      "ĠSolvers": 7629,
      "Ġprop": 7630,
      "Ġcontrib": 7631,
      "Ġdetermines": 7632,
      "Ġmus": 7633,
      "Ġnoted": 7634,
      "nthetic": 7635,
      "Ġchoc": 7636,
      "Ġprin": 7637,
      "111": 7638,
      "vector": 7639,
      "([": 7640,
      "Sur": 7641,
      "ĠMA": 7642,
      "ĠCou": 7643,
      "Ġcrosses": 7644,
      "333": 7645,
      "ĠBoolean": 7646,
      "polation": 7647,
      "ĠRegular": 7648,
      "Ġchanged": 7649,
      "ĠThread": 7650,
      "sinh": 7651,
      "Formula": 7652,
      "ĠPractical": 7653,
      "ĠKE": 7654,
      "Ġquad": 7655,
      "readth": 7656,
      "Ġconser": 7657,
      "Ġrotations": 7658,
      "Ġlove": 7659,
      "umin": 7660,
      "Ġalternate": 7661,
      "ĠRun": 7662,
      "vy": 7663,
      "Ġscreen": 7664,
      "Ġpictures": 7665,
      "Ġdivisibility": 7666,
      "();": 7667,
      "more": 7668,
      "Ġsche": 7669,
      "Ġconstraint": 7670,
      "Ġconfirming": 7671,
      "Ġthickness": 7672,
      "rank": 7673,
      "Ġoperators": 7674,
      "ĠPressure": 7675,
      "Ġarrangements": 7676,
      "jector": 7677,
      "cosh": 7678,
      "Ġeigenvalue": 7679,
      "Ġencourag": 7680,
      "ged": 7681,
      "Â©": 7682,
      "Finally": 7683,
      "ĠSearch": 7684,
      "Ġevaluated": 7685,
      "Ġign": 7686,
      "hib": 7687,
      "160": 7688,
      "Ġsalary": 7689,
      "Ġflip": 7690,
      "arry": 7691,
      "Ġbuilt": 7692,
      "Ġdomin": 7693,
      "add": 7694,
      "Ġbattery": 7695,
      "Ġrecurrence": 7696,
      "Ġancient": 7697,
      "arr": 7698,
      "ĠInfinite": 7699,
      "Ġsand": 7700,
      "ĠWithout": 7701,
      "Taking": 7702,
      "Ġtutor": 7703,
      "Ġregardless": 7704,
      "prod": 7705,
      "Ġjump": 7706,
      "$).": 7707,
      "Ġyes": 7708,
      "RICH": 7709,
      "ĠQuantitative": 7710,
      "]_": 7711,
      "ĠAlgorithms": 7712,
      "run": 7713,
      ")))": 7714,
      "Ġattempt": 7715,
      "Ġcumulative": 7716,
      "ĠImplement": 7717,
      "Fig": 7718,
      "cules": 7719,
      "Ġfewer": 7720,
      "Ġcareful": 7721,
      "$?": 7722,
      "Ġinstructions": 7723,
      "Ġtruck": 7724,
      "ĊĊĠĠĠĠĠĠĠ": 7725,
      "pping": 7726,
      "ĠNatural": 7727,
      "asy": 7728,
      "ĠProg": 7729,
      "Try": 7730,
      "Ġthousands": 7731,
      "atform": 7732,
      "algebra": 7733,
      "Ġinvers": 7734,
      "arante": 7735,
      "Ġassignment": 7736,
      "ichael": 7737,
      "ĠAnn": 7738,
      "Ġvideos": 7739,
      "Ġadditive": 7740,
      "ĠProportions": 7741,
      "ĠInduction": 7742,
      "ĠContributor": 7743,
      "Ġimplementation": 7744,
      "Ð½": 7745,
      "cipl": 7746,
      "go": 7747,
      "Ġprices": 7748,
      "ured": 7749,
      "uchy": 7750,
      "Co": 7751,
      "rants": 7752,
      "ĠVariation": 7753,
      "Ġinstantaneous": 7754,
      "ĠGreen": 7755,
      "heit": 7756,
      "Ġpivot": 7757,
      "Ġcontinued": 7758,
      "operatorname": 7759,
      "Ġstuck": 7760,
      "Ġhits": 7761,
      "posite": 7762,
      "ele": 7763,
      "ĠTrig": 7764,
      "\\}\\).": 7765,
      "Ġpeak": 7766,
      "Ġsorted": 7767,
      "Fractions": 7768,
      "atell": 7769,
      "Ġpen": 7770,
      "Of": 7771,
      "erivatives": 7772,
      "Ġrestric": 7773,
      "Ġreact": 7774,
      "ĠProfit": 7775,
      "Ġtangents": 7776,
      "ĠShort": 7777,
      "Ġmargin": 7778,
      "Ġsimulation": 7779,
      "ĠĠĠĠĠĠĠĠĠĠĠĠĠĠĠĠĠĠĠĠĠ": 7780,
      "Ġchemical": 7781,
      "Topic": 7782,
      "Ġstar": 7783,
      "ĠReflection": 7784,
      "ĠVoltage": 7785,
      "count": 7786,
      "ĠGauss": 7787,
      "Ġaddres": 7788,
      "ĠStatistical": 7789,
      "ermat": 7790,
      "Ġexperiments": 7791,
      "Ġgover": 7792,
      "ahren": 7793,
      "RT": 7794,
      "Ġextrac": 7795,
      "iverse": 7796,
      "Division": 7797,
      "Ġhist": 7798,
      "ĠJames": 7799,
      "adecimal": 7800,
      "Ġfing": 7801,
      "Ġaccom": 7802,
      "ĠODE": 7803,
      "Ġvisit": 7804,
      "tri": 7805,
      "Ġrough": 7806,
      "Ġacid": 7807,
      "Ġcurvature": 7808,
      "Ã³": 7809,
      "Ġ\\(+": 7810,
      "Ġclassic": 7811,
      "ĠOF": 7812,
      "Ġtack": 7813,
      "ahrenheit": 7814,
      "ĠSubject": 7815,
      "Speed": 7816,
      "Ġlists": 7817,
      "à¥į": 7818,
      "Ġquantitative": 7819,
      "Ġinvertible": 7820,
      "ĠChain": 7821,
      "Ġriver": 7822,
      "size": 7823,
      "ĠPercentages": 7824,
      "ĠLat": 7825,
      "ÑĢ": 7826,
      "att": 7827,
      "ĠPQ": 7828,
      "ĠBound": 7829,
      "ĠObjective": 7830,
      "Ġrace": 7831,
      "icks": 7832,
      "Ġ700": 7833,
      "Ġstandards": 7834,
      "tax": 7835,
      "ĠAmerican": 7836,
      "ĠSam": 7837,
      "}},": 7838,
      "ĠUnder": 7839,
      "ĠSer": 7840,
      "ML": 7841,
      "eth": 7842,
      "Ġtails": 7843,
      "Ġspin": 7844,
      "Ġreser": 7845,
      "ĠUnited": 7846,
      "Ġmanner": 7847,
      "Ġcommand": 7848,
      "variance": 7849,
      "ca": 7850,
      "Ġminimize": 7851,
      "Ġrele": 7852,
      "erson": 7853,
      "Ġ450": 7854,
      "Ġimplicit": 7855,
      "ĠCard": 7856,
      "bert": 7857,
      "ably": 7858,
      "Ġarrays": 7859,
      "ĠSingle": 7860,
      "ĠPerc": 7861,
      "Ġvaluable": 7862,
      "Ġbranches": 7863,
      "oments": 7864,
      "Ġcyclic": 7865,
      "375": 7866,
      "ĠTor": 7867,
      "ĠSyllabus": 7868,
      "Ġcool": 7869,
      "titions": 7870,
      "ĠTeaching": 7871,
      "Published": 7872,
      "Ġreplaced": 7873,
      "lectric": 7874,
      "Ġbreaking": 7875,
      "Op": 7876,
      "ĠObser": 7877,
      "tone": 7878,
      "ĠHalf": 7879,
      "Ġsaying": 7880,
      "verages": 7881,
      "Ġdescribing": 7882,
      "Ġunknowns": 7883,
      "Similarly": 7884,
      "dist": 7885,
      "ĠCircuits": 7886,
      "ĠPapers": 7887,
      "Ġscales": 7888,
      "Ġmental": 7889,
      "Ġbegins": 7890,
      "128": 7891,
      "anging": 7892,
      "ĠRewrite": 7893,
      "son": 7894,
      "ĠRecognize": 7895,
      "ometric": 7896,
      "Ġsubjects": 7897,
      "Ġmanufact": 7898,
      "regular": 7899,
      "eness": 7900,
      "ĠClarifications": 7901,
      ",âĢĿ": 7902,
      "vate": 7903,
      "February": 7904,
      "edance": 7905,
      "Ġcity": 7906,
      "Ġ1200": 7907,
      "|}": 7908,
      "Ġml": 7909,
      "ĠQuotient": 7910,
      "Ġcop": 7911,
      "haps": 7912,
      "ĠKe": 7913,
      "Ġ350": 7914,
      "January": 7915,
      "sem": 7916,
      "Ġuniformly": 7917,
      "ano": 7918,
      "ission": 7919,
      "ĠTimes": 7920,
      "Ġcategory": 7921,
      "Ġborrow": 7922,
      "Ġbridge": 7923,
      "emma": 7924,
      "ĠParts": 7925,
      "}/": 7926,
      "Ġprim": 7927,
      "Ġsatisfied": 7928,
      "ĠMagic": 7929,
      "Sample": 7930,
      "Ġstudied": 7931,
      "cluded": 7932,
      "Ġalthough": 7933,
      "Ġtrig": 7934,
      "ai": 7935,
      "ĠTemperature": 7936,
      "Ġtit": 7937,
      "Ġinstruction": 7938,
      "GM": 7939,
      "Ġjustif": 7940,
      "uro": 7941,
      "ĠDimensions": 7942,
      "Ġconstructing": 7943,
      "ISBN": 7944,
      "ĠOhm": 7945,
      "ĠConfidence": 7946,
      "light": 7947,
      "ĠBelow": 7948,
      "Ġconfusion": 7949,
      "romagnetic": 7950,
      "Ġinvestigate": 7951,
      "GCF": 7952,
      "Ġunderstood": 7953,
      "Ġship": 7954,
      "ĠCorrelation": 7955,
      "Ġcentripetal": 7956,
      "ixth": 7957,
      "Ø§": 7958,
      "ĠDistributive": 7959,
      "225": 7960,
      "Ġrob": 7961,
      "Ġrotate": 7962,
      "Var": 7963,
      "Ġ-(": 7964,
      "ugging": 7965,
      "ham": 7966,
      "Ġderivation": 7967,
      "UR": 7968,
      "Ġ256": 7969,
      "ĠDiscussions": 7970,
      "{|": 7971,
      "Ins": 7972,
      "OB": 7973,
      "Ġmetal": 7974,
      "Ġaffects": 7975,
      "Ġstone": 7976,
      "Ġbuck": 7977,
      "Ġpersonal": 7978,
      "Ġproposed": 7979,
      "Ġdemonstrating": 7980,
      "Ġtrend": 7981,
      "upils": 7982,
      "ĠCP": 7983,
      "|--------------------": 7984,
      "ĠMoney": 7985,
      "Ġskew": 7986,
      "Ġcapital": 7987,
      "Ġatoms": 7988,
      "sm": 7989,
      "Ġ220": 7990,
      "Ġcarbon": 7991,
      "ĠSort": 7992,
      "ĠIdentif": 7993,
      "Ġissue": 7994,
      "ĠFall": 7995,
      "2001": 7996,
      "ĠResults": 7997,
      "Ġ\\).**": 7998,
      "ĠModeling": 7999,
      "Ġband": 8000,
      "Ġlongest": 8001,
      "[]": 8002,
      "ĠLife": 8003,
      "Ġ5000": 8004,
      "Ġdecisions": 8005,
      "ĠPerfect": 8006,
      "uk": 8007,
      "asons": 8008,
      "}}\\).": 8009,
      "Further": 8010,
      "gence": 8011,
      "ĠRemainder": 8012,
      "ĠMaking": 8013,
      "ĠMinimum": 8014,
      "ĠRounding": 8015,
      "Ġguarante": 8016,
      "Associ": 8017,
      "allelograms": 8018,
      "Not": 8019,
      "ABCD": 8020,
      "Ġnonlinear": 8021,
      "ĠDetermining": 8022,
      "Ġpentagon": 8023,
      "inematics": 8024,
      "achines": 8025,
      "ĠNorth": 8026,
      "ĠCritical": 8027,
      "Ġcarefully": 8028,
      "!**": 8029,
      "Ġestablish": 8030,
      "ĠBegin": 8031,
      "dated": 8032,
      "Ġbalanced": 8033,
      "two": 8034,
      "rap": 8035,
      "ĠWorking": 8036,
      "osure": 8037,
      "ĠBen": 8038,
      "ĠComparison": 8039,
      "alks": 8040,
      "Ġec": 8041,
      "Ġconverge": 8042,
      "{[": 8043,
      "Ġbutton": 8044,
      "Ġcomm": 8045,
      "Ġgolden": 8046,
      "Ġ[\\": 8047,
      "&\\": 8048,
      "istered": 8049,
      ")(\\": 8050,
      "orph": 8051,
      "Ġmodeled": 8052,
      "ĠLight": 8053,
      "ĠThomas": 8054,
      "Ġbasics": 8055,
      "PQ": 8056,
      "Ġenclosed": 8057,
      "ĠIll": 8058,
      "second": 8059,
      "lb": 8060,
      "Ġiterative": 8061,
      "ana": 8062,
      "ĠâĢ¢": 8063,
      "_{-\\": 8064,
      "Ġtouc": 8065,
      "Ġ(+": 8066,
      "Bl": 8067,
      "ĠPrecalculus": 8068,
      "Anonymous": 8069,
      "Ġtransition": 8070,
      "280": 8071,
      "ĠBernoulli": 8072,
      "Ġnonzero": 8073,
      "ĠDistributions": 8074,
      "Replies": 8075,
      "Ġquadrilaterals": 8076,
      "Real": 8077,
      "ĠContinuity": 8078,
      "ĠRectangular": 8079,
      "cou": 8080,
      "ĠRelationships": 8081,
      "Ġ$[": 8082,
      "ĠMode": 8083,
      "Ġthread": 8084,
      "Ġwhereas": 8085,
      "sy": 8086,
      "Ġclosest": 8087,
      "Ġmicro": 8088,
      "Ġsummary": 8089,
      "ĠIntermediate": 8090,
      "ĠIndependent": 8091,
      "do": 8092,
      "power": 8093,
      "ĠFahrenheit": 8094,
      "TENT": 8095,
      "Ġphra": 8096,
      "undamentals": 8097,
      "Ġmarble": 8098,
      "Output": 8099,
      "isons": 8100,
      "Ġassociative": 8101,
      "ees": 8102,
      "Ġweb": 8103,
      "ĠGl": 8104,
      "Ġconcave": 8105,
      "Ġvi": 8106,
      "ATION": 8107,
      "Ġcharged": 8108,
      "Common": 8109,
      "Ġissues": 8110,
      "Ġexamine": 8111,
      "changed": 8112,
      "Ġwood": 8113,
      "ĠResearch": 8114,
      "ĠSal": 8115,
      "SW": 8116,
      "ĠNRICH": 8117,
      "nitude": 8118,
      "ĠĠĠĠĠĠĠĠĠĠĠĠĠĠĠĠĠĠĠĠ": 8119,
      "Ġoutputs": 8120,
      "rouping": 8121,
      "Level": 8122,
      "ĠObjectives": 8123,
      "OM": 8124,
      "Ġ________": 8125,
      "yramids": 8126,
      "Choose": 8127,
      "Ġquarters": 8128,
      "Ġplotting": 8129,
      "Ġproven": 8130,
      "Ġclassical": 8131,
      "Ġheights": 8132,
      "minus": 8133,
      "Ġtoward": 8134,
      "Ġdispl": 8135,
      "Ġjoint": 8136,
      "izzes": 8137,
      "Ġâī": 8138,
      "asible": 8139,
      "Polynomial": 8140,
      "700": 8141,
      "Ġrays": 8142,
      "Ġremoving": 8143,
      "Im": 8144,
      "Ġsummation": 8145,
      "EL": 8146,
      "Follow": 8147,
      "RA": 8148,
      "rot": 8149,
      "ĠRoll": 8150,
      "ĠMaterials": 8151,
      "Ġstationary": 8152,
      "Ġshared": 8153,
      "Ġversa": 8154,
      "pposite": 8155,
      "ĠInvolving": 8156,
      "Ġcomplementary": 8157,
      "Ġstored": 8158,
      "aker": 8159,
      "Ġbasket": 8160,
      "Ġcentre": 8161,
      "zeta": 8162,
      "Ġarticles": 8163,
      "Ġcornerstone": 8164,
      "Mem": 8165,
      "eff": 8166,
      "Ġtwenty": 8167,
      "Ġelectrons": 8168,
      "Applying": 8169,
      "Non": 8170,
      "Ġbenef": 8171,
      "Ġsell": 8172,
      "Ġappe": 8173,
      "ĠScale": 8174,
      "fix": 8175,
      "ĠSem": 8176,
      "och": 8177,
      "Ġinverses": 8178,
      "ras": 8179,
      "Ġcam": 8180,
      "Ġ____________________": 8181,
      "ĠAngular": 8182,
      "Ġmonomial": 8183,
      "ĠDiscuss": 8184,
      "à¤°": 8185,
      "partment": 8186,
      "Ġmilk": 8187,
      "|------": 8188,
      "Ġarchit": 8189,
      "free": 8190,
      "Ġattrac": 8191,
      "lood": 8192,
      "Estim": 8193,
      "Ġswe": 8194,
      "ĠMeasures": 8195,
      "rop": 8196,
      "Ġmapping": 8197,
      "Ġwish": 8198,
      "Â°,": 8199,
      "Ġdest": 8200,
      "kx": 8201,
      "ato": 8202,
      "Percentage": 8203,
      "ĠCoin": 8204,
      "Ġenjoy": 8205,
      "Ġconclusions": 8206,
      "ĠPrep": 8207,
      "Eng": 8208,
      "Ġmatching": 8209,
      "Ġirre": 8210,
      "Ġast": 8211,
      "rouble": 8212,
      "boxed": 8213,
      "Ġappreciated": 8214,
      "Ġclarify": 8215,
      "Ġconfiguration": 8216,
      "Ġrespective": 8217,
      "Ġadvance": 8218,
      "ĠVerify": 8219,
      "ĠAnalyze": 8220,
      "2002": 8221,
      "Expression": 8222,
      "ĠGolden": 8223,
      "Ġdistingu": 8224,
      "Ġlimited": 8225,
      "Expanding": 8226,
      "Ġiteration": 8227,
      "earranging": 8228,
      "Ġemphasizing": 8229,
      "ĠAssessment": 8230,
      "ĠAlways": 8231,
      "Euler": 8232,
      "ÃĹ": 8233,
      "tag": 8234,
      "NF": 8235,
      "365": 8236,
      "Ġdropped": 8237,
      "{{": 8238,
      "Ġreveal": 8239,
      "urb": 8240,
      "Ġcomposed": 8241,
      "Ġtenths": 8242,
      "Dis": 8243,
      "III": 8244,
      "cks": 8245,
      "September": 8246,
      "Ġsil": 8247,
      "tell": 8248,
      "|^": 8249,
      "Ġfilter": 8250,
      "ĠSix": 8251,
      "ĠVertex": 8252,
      "Ġsentences": 8253,
      "positive": 8254,
      "Ġtold": 8255,
      "ĠRelations": 8256,
      "nings": 8257,
      "Ġmys": 8258,
      "entiation": 8259,
      "Ed": 8260,
      "November": 8261,
      "Ġserves": 8262,
      "Ġinfluence": 8263,
      "Ġcoinc": 8264,
      "ille": 8265,
      "Ġthermal": 8266,
      "ĠEconom": 8267,
      "Ġinsu": 8268,
      "More": 8269,
      "Ġ216": 8270,
      "ĠDenominators": 8271,
      "berg": 8272,
      "avy": 8273,
      "Meas": 8274,
      "ĠRow": 8275,
      "Ġconsequ": 8276,
      "pdf": 8277,
      "Ġexistence": 8278,
      "ĠQuick": 8279,
      "Ġjourney": 8280,
      "June": 8281,
      "Ġ\\)**:": 8282,
      "ared": 8283,
      "ĠCauchy": 8284,
      "NBT": 8285,
      "ĠProposition": 8286,
      "ĠCircular": 8287,
      "Ġshell": 8288,
      "ĠTransformation": 8289,
      "ĠLit": 8290,
      "oops": 8291,
      "Ġextends": 8292,
      "Ġplatform": 8293,
      "Ġshares": 8294,
      "Height": 8295,
      "Ġcurved": 8296,
      "atial": 8297,
      "iley": 8298,
      "Ġearned": 8299,
      "ĠChe": 8300,
      "ception": 8301,
      "EB": 8302,
      "Ġcategories": 8303,
      "distance": 8304,
      "Ġneut": 8305,
      "ï¼Į": 8306,
      "enter": 8307,
      "Mass": 8308,
      "Ġindices": 8309,
      "ĠPass": 8310,
      "Ġreasonable": 8311,
      "Ġ1500": 8312,
      "256": 8313,
      "non": 8314,
      "ĠTom": 8315,
      "PE": 8316,
      "idistant": 8317,
      "Ġconcern": 8318,
      "Ge": 8319,
      "ĠProducts": 8320,
      "Ġ($\\": 8321,
      "Ġtrac": 8322,
      "Ġarises": 8323,
      "ropy": 8324,
      "long": 8325,
      "ĠHex": 8326,
      "Ġidentified": 8327,
      "ĠBusiness": 8328,
      "cellent": 8329,
      "Ġ~": 8330,
      "Ġtransversal": 8331,
      "odies": 8332,
      "cut": 8333,
      "ĠTR": 8334,
      "Ġarrive": 8335,
      "ĠPosition": 8336,
      "Mar": 8337,
      "ondition": 8338,
      "ĠBo": 8339,
      "iest": 8340,
      "|------------------------": 8341,
      "adratics": 8342,
      "Ġbirthday": 8343,
      "Perimeter": 8344,
      "Ġ10000": 8345,
      "Ġsolids": 8346,
      "ĠPut": 8347,
      "joint": 8348,
      "Ġhundredths": 8349,
      "ĠConditions": 8350,
      "ĠPath": 8351,
      "teady": 8352,
      "Ġruler": 8353,
      "ĠSimplification": 8354,
      "ĠChart": 8355,
      "date": 8356,
      "Ġpreviously": 8357,
      "Ġsubstance": 8358,
      "Ġ121": 8359,
      "Ġunderlying": 8360,
      "Ġremainders": 8361,
      "radox": 8362,
      "Ġhistory": 8363,
      "nx": 8364,
      "CSE": 8365,
      "Ġconjecture": 8366,
      "ĠCubic": 8367,
      "140": 8368,
      "})}": 8369,
      "four": 8370,
      "Ġshall": 8371,
      "therefore": 8372,
      "loci": 8373,
      "Ġdefines": 8374,
      "Ġsecant": 8375,
      "ĠAdditionally": 8376,
      "ĠDrawing": 8377,
      "upport": 8378,
      "rossing": 8379,
      "opyright": 8380,
      "Ġtransformed": 8381,
      "Ġcauses": 8382,
      "atever": 8383,
      "Intercept": 8384,
      "ĠĊĠĠĠĠ": 8385,
      "clockwise": 8386,
      "Ġtouches": 8387,
      "Ġdf": 8388,
      "Ġpan": 8389,
      "ĠMac": 8390,
      "Ġdrive": 8391,
      "Range": 8392,
      "Ġ102": 8393,
      "Ġbad": 8394,
      "ĠSections": 8395,
      "Ġfish": 8396,
      "Any": 8397,
      "Ġdiscipl": 8398,
      ")}}{": 8399,
      "á»": 8400,
      "Ġconcer": 8401,
      "ĠAnonymous": 8402,
      "Ġcapt": 8403,
      "Ġadvantage": 8404,
      "Ġ3000": 8405,
      "Ġdrag": 8406,
      "Ġ2023": 8407,
      "llips": 8408,
      "Ġplayed": 8409,
      "ĠSuper": 8410,
      "ĠSugg": 8411,
      "Ġyard": 8412,
      "Ġshadow": 8413,
      "ĠIntersection": 8414,
      "Ġcomb": 8415,
      "Met": 8416,
      "Ġclarification": 8417,
      "Ġadap": 8418,
      "Ġpo": 8419,
      "Ġtraditional": 8420,
      "108": 8421,
      "Ġindividuals": 8422,
      "locities": 8423,
      "ĠExpected": 8424,
      "Assuming": 8425,
      "ĠAnaly": 8426,
      "FF": 8427,
      "ĠBooks": 8428,
      "irical": 8429,
      "ĠHCF": 8430,
      "Ġoz": 8431,
      "Product": 8432,
      "Ġsavings": 8433,
      "ĠHyperbol": 8434,
      "IG": 8435,
      "IM": 8436,
      "Ġstage": 8437,
      "ĠJour": 8438,
      "};": 8439,
      "idden": 8440,
      "Ġstream": 8441,
      "enses": 8442,
      "Ġgallon": 8443,
      "omorphism": 8444,
      "ĠGoogle": 8445,
      "area": 8446,
      "Ġpump": 8447,
      "Quote": 8448,
      "Ġmolecules": 8449,
      "ĠContinuous": 8450,
      "\\,\\": 8451,
      "Ġindependently": 8452,
      "Ġbra": 8453,
      "Ġstability": 8454,
      "Ġ...,": 8455,
      "'\\)": 8456,
      "Ġcriteria": 8457,
      "Ġterminal": 8458,
      "Su": 8459,
      "ĠAlthough": 8460,
      "empt": 8461,
      ")=\\": 8462,
      "Ġintensity": 8463,
      "Ġstanding": 8464,
      "ĠDegree": 8465,
      "Ġcompounding": 8466,
      "rs": 8467,
      "Ġvelocities": 8468,
      "result": 8469,
      "ĠSoc": 8470,
      "ĠStrategy": 8471,
      "Ġaid": 8472,
      "Ġhyperbolic": 8473,
      "ĠTeam": 8474,
      "Notice": 8475,
      "mi": 8476,
      "key": 8477,
      "ience": 8478,
      "Ġassigned": 8479,
      "ĠCurves": 8480,
      "arp": 8481,
      "Ġadds": 8482,
      "Ġrespond": 8483,
      "Ġvan": 8484,
      "ĠHis": 8485,
      "Ġuncertainty": 8486,
      "what": 8487,
      "Ġconnections": 8488,
      "osh": 8489,
      "entile": 8490,
      "mass": 8491,
      "Ġsale": 8492,
      "Basic": 8493,
      "Ġmi": 8494,
      "Ġscaling": 8495,
      "OS": 8496,
      "Ġhealth": 8497,
      "inch": 8498,
      "Ġfinally": 8499,
      "World": 8500,
      "Ġendpoint": 8501,
      "elve": 8502,
      "ĠRearrange": 8503,
      "Ġsaw": 8504,
      "ĠDifferentiate": 8505,
      "mL": 8506,
      "Ġdiscontinu": 8507,
      "Ġ\\([-": 8508,
      "ĠReference": 8509,
      "})}{": 8510,
      "irm": 8511,
      "ĠBri": 8512,
      "RR": 8513,
      "Ġcharts": 8514,
      "Ġopens": 8515,
      "anguages": 8516,
      "ĠÃ·": 8517,
      "Ġobtuse": 8518,
      "ĠCosines": 8519,
      "Ġballoon": 8520,
      "ĠBayes": 8521,
      "Ġsave": 8522,
      "Ġconvergent": 8523,
      "abc": 8524,
      "Ġnick": 8525,
      "Ġpress": 8526,
      "ceil": 8527,
      "ĠCCSS": 8528,
      "Ġhelped": 8529,
      "Ġrotated": 8530,
      "Ġdevice": 8531,
      "asing": 8532,
      "Ġrocket": 8533,
      "ĠConstruction": 8534,
      "Ġweighted": 8535,
      "Ġranges": 8536,
      "ĠBank": 8537,
      "Ġcuts": 8538,
      "Code": 8539,
      "Ġraise": 8540,
      "Ġapproximations": 8541,
      "Ġreached": 8542,
      "ĠPS": 8543,
      "ptograph": 8544,
      "Ġhighlighting": 8545,
      "opping": 8546,
      "ĠAgain": 8547,
      "ĠFermat": 8548,
      "Ġclim": 8549,
      "cale": 8550,
      "Four": 8551,
      "Ġachieved": 8552,
      "PA": 8553,
      "ena": 8554,
      "abs": 8555,
      "Equations": 8556,
      "Ġdetail": 8557,
      "Differential": 8558,
      "Ġinversely": 8559,
      "Ġzeroes": 8560,
      "ĠStatements": 8561,
      "ĠDetails": 8562,
      "ĠHz": 8563,
      "Ġ978": 8564,
      "Value": 8565,
      "meter": 8566,
      "ĠDefinite": 8567,
      "ĠCylinder": 8568,
      "ĠFocus": 8569,
      "ĠFill": 8570,
      "Ġplays": 8571,
      "Ġcommunity": 8572,
      "arma": 8573,
      "Ġmeant": 8574,
      "ging": 8575,
      "ĠInternational": 8576,
      "Ġcredit": 8577,
      "positions": 8578,
      "Ġkn": 8579,
      "Ġfuel": 8580,
      "opposite": 8581,
      "yset": 8582,
      "Rearrange": 8583,
      "ony": 8584,
      "Newton": 8585,
      "Ġbrief": 8586,
      "orous": 8587,
      "Ġfunctional": 8588,
      "While": 8589,
      "Ġeigenvector": 8590,
      "ĠĠĊĊĠĠ": 8591,
      "Ġseparated": 8592,
      "Ġ\\(=": 8593,
      "Ġcollected": 8594,
      "that": 8595,
      "emptyset": 8596,
      "ĠKinetic": 8597,
      "ennies": 8598,
      "Ġcycles": 8599,
      "Ġrecognizing": 8600,
      "Ġsetup": 8601,
      "ĠMeter": 8602,
      "]$": 8603,
      "Ġexc": 8604,
      "case": 8605,
      "Ġpopular": 8606,
      "General": 8607,
      "endar": 8608,
      "bx": 8609,
      "uri": 8610,
      "uster": 8611,
      "ĠDri": 8612,
      "Ġgeneralized": 8613,
      "ĠCubes": 8614,
      ")'": 8615,
      "Ġappreciate": 8616,
      "Ġ$|": 8617,
      "ĠArrange": 8618,
      "Ġweighs": 8619,
      "Ġsemicircle": 8620,
      "OVA": 8621,
      "era": 8622,
      "atory": 8623,
      "Ġtrouble": 8624,
      "ĠAct": 8625,
      "olt": 8626,
      "unuel": 8627,
      "Ġpurchase": 8628,
      "ĠCould": 8629,
      "ĠPrin": 8630,
      "Ass": 8631,
      "ĠEllip": 8632,
      "water": 8633,
      "Sk": 8634,
      ")}}": 8635,
      "Best": 8636,
      "ĠEffect": 8637,
      "kay": 8638,
      "Ġdiscovered": 8639,
      "Ġverified": 8640,
      "Ġending": 8641,
      "Ġutility": 8642,
      "Understand": 8643,
      "Ġspend": 8644,
      "ĠDirection": 8645,
      "Ġequidistant": 8646,
      "Thread": 8647,
      "Ġdise": 8648,
      "Ġwonder": 8649,
      "zy": 8650,
      "Ġattention": 8651,
      "Ġturning": 8652,
      "ford": 8653,
      "cont": 8654,
      "ĠElimination": 8655,
      "Ġsimilarly": 8656,
      "Ġ||": 8657,
      "Ġeat": 8658,
      "tals": 8659,
      "arcsin": 8660,
      "Ġfinds": 8661,
      "Ġpapers": 8662,
      "ĠReturn": 8663,
      "umps": 8664,
      "ynamic": 8665,
      "ĠEF": 8666,
      "entity": 8667,
      "bre": 8668,
      "ãĢĤ": 8669,
      "`:": 8670,
      "ĠCharacter": 8671,
      "Ġreleased": 8672,
      "Ġoil": 8673,
      "Ġorientation": 8674,
      "Rati": 8675,
      "=-": 8676,
      "ilos": 8677,
      "Properties": 8678,
      "Ġreplacement": 8679,
      "EC": 8680,
      "Ġ126": 8681,
      "Ġvibra": 8682,
      "AA": 8683,
      "plan": 8684,
      "ĠSpecifically": 8685,
      "Ġ270": 8686,
      "SSON": 8687,
      "ĠEss": 8688,
      "Ġdv": 8689,
      "Ġatmosp": 8690,
      "About": 8691,
      "ĠJEE": 8692,
      "ĠIndex": 8693,
      "ada": 8694,
      "Ġcuboid": 8695,
      "ĠDiagrams": 8696,
      "wedge": 8697,
      "plaintext": 8698,
      "Cross": 8699,
      "Year": 8700,
      "Ġpredictions": 8701,
      "Ġeleg": 8702,
      "ĠDynamics": 8703,
      "Ġexplaining": 8704,
      "color": 8705,
      "Ġmolar": 8706,
      "Ġtextbooks": 8707,
      "Circ": 8708,
      "real": 8709,
      "Ġversus": 8710,
      "Ġcookies": 8711,
      "ĠStrategies": 8712,
      "Rewrite": 8713,
      "456": 8714,
      "gl": 8715,
      "ĠMetric": 8716,
      "CL": 8717,
      "sof": 8718,
      "}\\,": 8719,
      "reater": 8720,
      "Ġinterpreting": 8721,
      "ĠAcademy": 8722,
      "6666": 8723,
      "ĠAlex": 8724,
      "arents": 8725,
      "Ġcentroid": 8726,
      "Ġalphab": 8727,
      "Ġfavorable": 8728,
      "Ġtemp": 8729,
      "Ġgold": 8730,
      "Ġminimal": 8731,
      "gn": 8732,
      "shaped": 8733,
      "Activity": 8734,
      "criptive": 8735,
      "ĠBefore": 8736,
      ")}\\)": 8737,
      "ĠDice": 8738,
      "Ġticket": 8739,
      "TER": 8740,
      "\\)**": 8741,
      "index": 8742,
      "Ġcurrently": 8743,
      "Ġexclusive": 8744,
      "Ġpackage": 8745,
      "ĠCoefficients": 8746,
      "but": 8747,
      "udget": 8748,
      "ĠMCQ": 8749,
      "Ġsupposed": 8750,
      "Ġjoined": 8751,
      "atellite": 8752,
      "pris": 8753,
      "Ġeggs": 8754,
      "Ġpassed": 8755,
      "ault": 8756,
      "ĠElement": 8757,
      "Ġvariability": 8758,
      "Ġhelping": 8759,
      "Result": 8760,
      "Ġkinds": 8761,
      "Continu": 8762,
      "Ġbounds": 8763,
      "ĠProgression": 8764,
      "adjacent": 8765,
      "how": 8766,
      "vis": 8767,
      "ĠExpansion": 8768,
      "ĠGas": 8769,
      "Ġpreserving": 8770,
      "entials": 8771,
      "Ġprofessional": 8772,
      "atic": 8773,
      "Ġcomputers": 8774,
      "Ġaff": 8775,
      "ATE": 8776,
      "itation": 8777,
      "2003": 8778,
      "ĠTherm": 8779,
      "ĠHigher": 8780,
      "Ġcardinal": 8781,
      "Ġ2003": 8782,
      "ĠInterpretation": 8783,
      "ranges": 8784,
      "Ġpracticing": 8785,
      "ĠIncrease": 8786,
      "agons": 8787,
      "ĠSkills": 8788,
      "ticed": 8789,
      "Ġproposition": 8790,
      "urning": 8791,
      "Plot": 8792,
      "unc": 8793,
      "Ġke": 8794,
      "ĠMicro": 8795,
      "trans": 8796,
      "Ġsouth": 8797,
      "ĠResistance": 8798,
      "ĊĠĠĊĠ": 8799,
      "ffee": 8800,
      "rictional": 8801,
      "Input": 8802,
      "Ġpresents": 8803,
      "Left": 8804,
      "ĠConvergence": 8805,
      "|\\)": 8806,
      "Ġpresentation": 8807,
      "Ġquantif": 8808,
      "ipro": 8809,
      "Ġpencil": 8810,
      "ĠDF": 8811,
      "Define": 8812,
      "ĠFriction": 8813,
      "]**": 8814,
      "ĠRelationship": 8815,
      "ruit": 8816,
      "Ġdisp": 8817,
      "Ġbelie": 8818,
      "December": 8819,
      "ĠReply": 8820,
      "Ġstretch": 8821,
      "ĠWave": 8822,
      "Ġminor": 8823,
      "ĠSegment": 8824,
      "Ġupwards": 8825,
      "Ġbinomials": 8826,
      "Ġstrictly": 8827,
      "Ġswim": 8828,
      "yd": 8829,
      "2012": 8830,
      "Ġrich": 8831,
      "ĠApplied": 8832,
      "Ġfloat": 8833,
      ")\\)?": 8834,
      "ĠTask": 8835,
      "Ġmanage": 8836,
      "ĠSignific": 8837,
      "Ġbow": 8838,
      "ĠPR": 8839,
      "Ġdeveloping": 8840,
      ")}(": 8841,
      "Ġfits": 8842,
      "Method": 8843,
      "GCD": 8844,
      "NS": 8845,
      "Ġfather": 8846,
      "ĠLarge": 8847,
      "Ġfeasible": 8848,
      "Ġmarginal": 8849,
      "overy": 8850,
      "Ġexec": 8851,
      "Status": 8852,
      "Ġexhib": 8853,
      "School": 8854,
      "gy": 8855,
      "CP": 8856,
      "Ġestimating": 8857,
      "Ġbullet": 8858,
      "ĠComposite": 8859,
      "pressed": 8860,
      "Figure": 8861,
      "Ġvac": 8862,
      "ĠPattern": 8863,
      "pezium": 8864,
      "Ġ__": 8865,
      "ĠChrist": 8866,
      "Ġbroad": 8867,
      "Ġ;": 8868,
      "aged": 8869,
      "ender": 8870,
      "Ġindust": 8871,
      "normal": 8872,
      "icate": 8873,
      "Converting": 8874,
      "Ġslide": 8875,
      "ĠBreak": 8876,
      "Ivy": 8877,
      "}(-": 8878,
      "ĠJac": 8879,
      "Ġcurrents": 8880,
      "Calculation": 8881,
      "Ġhyper": 8882,
      "Ġevaluation": 8883,
      "Ġassumes": 8884,
      "obert": 8885,
      "Ġmessage": 8886,
      "Ġport": 8887,
      "ĠSP": 8888,
      "ba": 8889,
      "ĠTutor": 8890,
      "ĠAdjust": 8891,
      "ĠCommun": 8892,
      "Steps": 8893,
      "Ġ**\\(": 8894,
      "Ġeventually": 8895,
      "Ġsocial": 8896,
      "ĊĠĠĠĠĠĠĠĠĠĠĠĠĠĠĠĠĠĠĠ": 8897,
      "ãĥ": 8898,
      "Ġcoming": 8899,
      "Ġsimplicity": 8900,
      "initial": 8901,
      "Ġabsor": 8902,
      "ĠTHE": 8903,
      "005": 8904,
      "ĠSue": 8905,
      "titive": 8906,
      "ountable": 8907,
      "Ġattrib": 8908,
      "Ġalgebraically": 8909,
      "Ġmol": 8910,
      "ĠBA": 8911,
      "eduction": 8912,
      "versely": 8913,
      "sofIvy": 8914,
      "ĠAir": 8915,
      "Ġshowed": 8916,
      "ĠSphere": 8917,
      "ĠWikipedia": 8918,
      "æķ": 8919,
      "ĠPredic": 8920,
      "ĠSines": 8921,
      "Ġsyn": 8922,
      "amps": 8923,
      "Ġpus": 8924,
      "ĠThan": 8925,
      "Ġapparent": 8926,
      "rench": 8927,
      "Ġimproving": 8928,
      "ography": 8929,
      "Ġlateral": 8930,
      "third": 8931,
      "Ġsubgroup": 8932,
      "emp": 8933,
      "Ġconsumption": 8934,
      "Ġrecursion": 8935,
      "Ġperspective": 8936,
      "Ġrecommended": 8937,
      "Ġanalyzed": 8938,
      "seud": 8939,
      "Subjects": 8940,
      "ĠLeg": 8941,
      "png": 8942,
      "ĠISBN": 8943,
      "MHF": 8944,
      "August": 8945,
      "Ġsystematic": 8946,
      "ĠSmith": 8947,
      "Ġlitres": 8948,
      "Ġheart": 8949,
      "ĠSampling": 8950,
      "ĠHard": 8951,
      "essell": 8952,
      "ĠContext": 8953,
      "Ġprogress": 8954,
      "Ġ132": 8955,
      "Ġfocal": 8956,
      "see": 8957,
      "avier": 8958,
      "Ġart": 8959,
      "ĠCompany": 8960,
      "ĠAptitude": 8961,
      "ĠDownload": 8962,
      "ls": 8963,
      "ĠMatch": 8964,
      "AQ": 8965,
      "Ġlose": 8966,
      "ĠAmount": 8967,
      "ĠConservation": 8968,
      "Surface": 8969,
      "ĠDisplacement": 8970,
      "Ġcentury": 8971,
      "})^{": 8972,
      "Ġcalls": 8973,
      "Ġencouraged": 8974,
      "Ġlif": 8975,
      "Ġdecided": 8976,
      "Ġcopies": 8977,
      "Triangle": 8978,
      "Ġnavigation": 8979,
      "eterminate": 8980,
      "Ġkx": 8981,
      "Ġassessment": 8982,
      "Ġpublished": 8983,
      "Type": 8984,
      "Ġpreparation": 8985,
      "135": 8986,
      "hs": 8987,
      "irty": 8988,
      "Place": 8989,
      "159": 8990,
      "Express": 8991,
      "Ġspatial": 8992,
      "Ġsumming": 8993,
      "Ñģ": 8994,
      "Ġkilogram": 8995,
      "ĠPhys": 8996,
      "underline": 8997,
      "aracters": 8998,
      "root": 8999,
      "Ġ+\\": 9000,
      "CB": 9001,
      "Ġcategor": 9002,
      "Over": 9003,
      "ildren": 9004,
      "}{|": 9005,
      "Man": 9006,
      "ĠUSE": 9007,
      "ĠAssignment": 9008,
      "Ġrain": 9009,
      "Ġengage": 9010,
      "Exponential": 9011,
      "Authors": 9012,
      "odynamics": 9013,
      "ĠDivisibility": 9014,
      "Ġinfin": 9015,
      "ĠLi": 9016,
      "ĠFun": 9017,
      "Ġdimes": 9018,
      "oud": 9019,
      "struct": 9020,
      "ĠDegrees": 9021,
      "orphic": 9022,
      "ĠRelative": 9023,
      "ronom": 9024,
      "Ġwhenever": 9025,
      "](#": 9026,
      "Ġ104": 9027,
      "Applications": 9028,
      "Ġconic": 9029,
      "Ġconductor": 9030,
      "sl": 9031,
      "ĠRo": 9032,
      "Simple": 9033,
      "Ġcounted": 9034,
      "ĠIndian": 9035,
      "ĠPercents": 9036,
      "dec": 9037,
      "istent": 9038,
      "Ġlecture": 9039,
      "Ġgraphics": 9040,
      "hev": 9041,
      "ãĤ": 9042,
      "Ġtendency": 9043,
      "Ġknot": 9044,
      "ĠFacts": 9045,
      "Ġsteel": 9046,
      "elly": 9047,
      "ĠSan": 9048,
      "ĠDemonst": 9049,
      "Ġfacilit": 9050,
      "check": 9051,
      "rative": 9052,
      "Ġcutting": 9053,
      "Ġscored": 9054,
      "Newbie": 9055,
      "imed": 9056,
      "Ġmidpoints": 9057,
      "ĠConversions": 9058,
      "Ġrou": 9059,
      "Ġspot": 9060,
      "Ġcolored": 9061,
      "Mag": 9062,
      "ux": 9063,
      "problem": 9064,
      "ĠImpl": 9065,
      "PR": 9066,
      "Ġclockwise": 9067,
      "Ġtemper": 9068,
      "rif": 9069,
      "weight": 9070,
      "Ġforum": 9071,
      "Ġtrajector": 9072,
      "ĠLeft": 9073,
      "{(\\": 9074,
      "ĠPaul": 9075,
      "essel": 9076,
      "ymmetric": 9077,
      "Ġhot": 9078,
      "DAS": 9079,
      "Ġincorp": 9080,
      "Ġfalling": 9081,
      "Ġordering": 9082,
      "ĠBlog": 9083,
      "ether": 9084,
      "Ġoverlap": 9085,
      "hess": 9086,
      "State": 9087,
      "[(": 9088,
      "Ġorange": 9089,
      "Ġperfectly": 9090,
      "Ġcombinatorial": 9091,
      "Ġincom": 9092,
      "ĠSmall": 9093,
      "Imagine": 9094,
      "Statistics": 9095,
      "ĠXY": 9096,
      "ĠLCD": 9097,
      "Ġpartner": 9098,
      "lin": 9099,
      "ĠStraight": 9100,
      "Ġsingular": 9101,
      "bul": 9102,
      "Ġflight": 9103,
      "Ġsurround": 9104,
      "ĠTeach": 9105,
      "!(": 9106,
      "apters": 9107,
      ")\\}": 9108,
      "Ġgraphically": 9109,
      "ĠGroups": 9110,
      "Ġsharing": 9111,
      "Ġknows": 9112,
      "ĠCompleting": 9113,
      "Ġfamous": 9114,
      "ĠLo": 9115,
      "Ġrequiring": 9116,
      "isher": 9117,
      "Ġplates": 9118,
      "Ġuniverse": 9119,
      "ĠCONTENT": 9120,
      "Complete": 9121,
      "Ġca": 9122,
      "Mon": 9123,
      "ĠIndia": 9124,
      "Ġwest": 9125,
      "unt": 9126,
      "Ġhistorical": 9127,
      "Ġradio": 9128,
      "ĠDecom": 9129,
      "ĠCircumference": 9130,
      "Subtraction": 9131,
      "ridges": 9132,
      "ulus": 9133,
      "Ġsells": 9134,
      "July": 9135,
      "xygen": 9136,
      "Questions": 9137,
      "lation": 9138,
      "Mark": 9139,
      "Every": 9140,
      "Ġmoments": 9141,
      "ĠMeters": 9142,
      "ĠPolygon": 9143,
      "Ġinductive": 9144,
      "Ġimpedance": 9145,
      "Ref": 9146,
      "Ġrequirements": 9147,
      "HT": 9148,
      "Ġtetra": 9149,
      "FUL": 9150,
      "Ġlos": 9151,
      "ino": 9152,
      "Ġsubspace": 9153,
      "ĠLicense": 9154,
      "ĠProving": 9155,
      "Look": 9156,
      "Original": 9157,
      "ĠChoice": 9158,
      "Our": 9159,
      "mma": 9160,
      "ĠPairs": 9161,
      "Ġdiverges": 9162,
      "ĠPuzzles": 9163,
      "00000": 9164,
      "igned": 9165,
      "ĠExponent": 9166,
      "ĠEstimation": 9167,
      "--|": 9168,
      "Ġmutually": 9169,
      "responding": 9170,
[...]
